#ifndef COMFORT_MODEL_V2_INT8_H_
#define COMFORT_MODEL_V2_INT8_H_

#include <stdint.h>

static const unsigned char comfort_model_tflite[] = {
  28, 0, 0, 0, 84, 70, 76, 51, 20, 0, 32, 0, 
  28, 0, 24, 0, 20, 0, 16, 0, 12, 0, 0, 0, 
  8, 0, 4, 0, 20, 0, 0, 0, 28, 0, 0, 0, 
  144, 0, 0, 0, 232, 0, 0, 0, 20, 47, 0, 0, 
  36, 47, 0, 0, 220, 55, 0, 0, 3, 0, 0, 0, 
  1, 0, 0, 0, 16, 0, 0, 0, 0, 0, 10, 0, 
  16, 0, 12, 0, 8, 0, 4, 0, 10, 0, 0, 0, 
  12, 0, 0, 0, 28, 0, 0, 0, 56, 0, 0, 0, 
  15, 0, 0, 0, 115, 101, 114, 118, 105, 110, 103, 95, 
  100, 101, 102, 97, 117, 108, 116, 0, 1, 0, 0, 0, 
  4, 0, 0, 0, 152, 255, 255, 255, 13, 0, 0, 0, 
  4, 0, 0, 0, 7, 0, 0, 0, 100, 101, 110, 115, 
  101, 95, 51, 0, 1, 0, 0, 0, 4, 0, 0, 0, 
  202, 208, 255, 255, 4, 0, 0, 0, 8, 0, 0, 0, 
  102, 101, 97, 116, 117, 114, 101, 115, 0, 0, 0, 0, 
  2, 0, 0, 0, 52, 0, 0, 0, 4, 0, 0, 0, 
  220, 255, 255, 255, 16, 0, 0, 0, 4, 0, 0, 0, 
  19, 0, 0, 0, 67, 79, 78, 86, 69, 82, 83, 73, 
  79, 78, 95, 77, 69, 84, 65, 68, 65, 84, 65, 0, 
  8, 0, 12, 0, 8, 0, 4, 0, 8, 0, 0, 0, 
  15, 0, 0, 0, 4, 0, 0, 0, 19, 0, 0, 0, 
  109, 105, 110, 95, 114, 117, 110, 116, 105, 109, 101, 95, 
  118, 101, 114, 115, 105, 111, 110, 0, 17, 0, 0, 0, 
  40, 46, 0, 0, 32, 46, 0, 0, 4, 46, 0, 0, 
  148, 45, 0, 0, 4, 45, 0, 0, 244, 36, 0, 0, 
  228, 35, 0, 0, 212, 3, 0, 0, 196, 1, 0, 0, 
  180, 0, 0, 0, 172, 0, 0, 0, 164, 0, 0, 0, 
  156, 0, 0, 0, 148, 0, 0, 0, 140, 0, 0, 0, 
  108, 0, 0, 0, 4, 0, 0, 0, 134, 209, 255, 255, 
  4, 0, 0, 0, 88, 0, 0, 0, 12, 0, 0, 0, 
  8, 0, 14, 0, 8, 0, 4, 0, 8, 0, 0, 0, 
  16, 0, 0, 0, 40, 0, 0, 0, 0, 0, 6, 0, 
  8, 0, 4, 0, 6, 0, 0, 0, 4, 0, 0, 0, 
  1, 0, 0, 0, 235, 3, 0, 0, 0, 0, 10, 0, 
  16, 0, 12, 0, 8, 0, 4, 0, 10, 0, 0, 0, 
  2, 0, 0, 0, 2, 0, 0, 0, 4, 0, 0, 0, 
  6, 0, 0, 0, 50, 46, 49, 53, 46, 48, 0, 0, 
  234, 209, 255, 255, 4, 0, 0, 0, 16, 0, 0, 0, 
  49, 46, 49, 52, 46, 48, 0, 0, 0, 0, 0, 0, 
  0, 0, 0, 0, 212, 209, 255, 255, 216, 209, 255, 255, 
  220, 209, 255, 255, 224, 209, 255, 255, 228, 209, 255, 255, 
  26, 210, 255, 255, 4, 0, 0, 0, 0, 1, 0, 0, 
  84, 247, 218, 7, 251, 12, 49, 37, 209, 28, 246, 213, 
  223, 227, 32, 174, 242, 5, 31, 185, 22, 22, 227, 53, 
  8, 27, 203, 248, 205, 27, 22, 179, 2, 249, 252, 24, 
  172, 3, 46, 46, 163, 254, 18, 228, 60, 251, 28, 15, 
  42, 244, 24, 2, 1, 33, 209, 207, 221, 210, 30, 186, 
  201, 40, 239, 231, 55, 253, 218, 1, 241, 42, 242, 246, 
  163, 4, 243, 23, 237, 2, 40, 196, 253, 25, 28, 200, 
  227, 203, 18, 32, 236, 29, 19, 1, 29, 31, 233, 251, 
  222, 47, 22, 1, 203, 26, 188, 5, 252, 228, 68, 25, 
  244, 222, 199, 38, 47, 246, 46, 181, 228, 28, 44, 239, 
  226, 2, 39, 198, 238, 224, 19, 14, 40, 18, 189, 252, 
  245, 33, 3, 166, 220, 204, 28, 17, 3, 213, 224, 45, 
  203, 13, 252, 212, 212, 31, 2, 214, 253, 220, 44, 4, 
  238, 36, 215, 37, 238, 26, 40, 246, 129, 25, 227, 42, 
  177, 8, 220, 35, 0, 232, 27, 252, 225, 252, 33, 208, 
  217, 8, 51, 20, 221, 206, 221, 210, 196, 31, 25, 13, 
  228, 245, 250, 211, 208, 225, 230, 38, 138, 18, 249, 255, 
  245, 216, 239, 237, 24, 38, 21, 169, 67, 5, 232, 228, 
  28, 14, 215, 20, 228, 203, 11, 226, 50, 249, 210, 216, 
  86, 239, 67, 241, 7, 23, 236, 254, 247, 19, 1, 239, 
  216, 218, 12, 2, 154, 17, 219, 238, 2, 190, 33, 14, 
  37, 197, 16, 196, 38, 211, 255, 255, 4, 0, 0, 0, 
  0, 2, 0, 0, 182, 241, 255, 255, 156, 8, 0, 0, 
  77, 253, 255, 255, 109, 230, 255, 255, 46, 251, 255, 255, 
  0, 0, 0, 0, 0, 0, 0, 0, 68, 0, 0, 0, 
  52, 1, 0, 0, 95, 254, 255, 255, 91, 240, 255, 255, 
  168, 232, 255, 255, 128, 248, 255, 255, 0, 0, 0, 0, 
  71, 1, 0, 0, 96, 4, 0, 0, 189, 254, 255, 255, 
  120, 252, 255, 255, 78, 17, 0, 0, 197, 223, 255, 255, 
  7, 21, 0, 0, 10, 12, 0, 0, 240, 252, 255, 255, 
  103, 243, 255, 255, 75, 237, 255, 255, 8, 253, 255, 255, 
  182, 247, 255, 255, 0, 0, 0, 0, 0, 0, 0, 0, 
  184, 254, 255, 255, 222, 254, 255, 255, 0, 0, 0, 0, 
  135, 254, 255, 255, 220, 253, 255, 255, 180, 242, 255, 255, 
  0, 0, 0, 0, 6, 17, 0, 0, 48, 252, 255, 255, 
  36, 0, 0, 0, 88, 25, 0, 0, 212, 243, 255, 255, 
  217, 252, 255, 255, 0, 0, 0, 0, 34, 244, 255, 255, 
  23, 244, 255, 255, 58, 252, 255, 255, 66, 234, 255, 255, 
  0, 0, 0, 0, 122, 236, 255, 255, 59, 250, 255, 255, 
  123, 254, 255, 255, 251, 11, 0, 0, 0, 0, 0, 0, 
  64, 231, 255, 255, 0, 0, 0, 0, 98, 254, 255, 255, 
  129, 0, 0, 0, 73, 246, 255, 255, 74, 247, 255, 255, 
  92, 1, 0, 0, 221, 7, 0, 0, 175, 246, 255, 255, 
  0, 0, 0, 0, 3, 250, 255, 255, 210, 239, 255, 255, 
  195, 16, 0, 0, 152, 245, 255, 255, 71, 18, 0, 0, 
  0, 0, 0, 0, 86, 242, 255, 255, 232, 253, 255, 255, 
  110, 237, 255, 255, 215, 6, 0, 0, 0, 0, 0, 0, 
  17, 255, 255, 255, 181, 254, 255, 255, 0, 0, 0, 0, 
  45, 246, 255, 255, 127, 249, 255, 255, 144, 253, 255, 255, 
  31, 252, 255, 255, 110, 1, 0, 0, 172, 2, 0, 0, 
  161, 238, 255, 255, 7, 13, 0, 0, 133, 248, 255, 255, 
  161, 254, 255, 255, 146, 242, 255, 255, 0, 0, 0, 0, 
  55, 12, 0, 0, 17, 6, 0, 0, 142, 236, 255, 255, 
  0, 0, 0, 0, 0, 0, 0, 0, 253, 252, 255, 255, 
  4, 245, 255, 255, 0, 0, 0, 0, 0, 0, 0, 0, 
  0, 0, 0, 0, 109, 240, 255, 255, 11, 5, 0, 0, 
  170, 254, 255, 255, 0, 0, 0, 0, 0, 0, 0, 0, 
  41, 241, 255, 255, 128, 7, 0, 0, 64, 237, 255, 255, 
  0, 0, 0, 0, 202, 243, 255, 255, 106, 2, 0, 0, 
  0, 0, 0, 0, 160, 250, 255, 255, 68, 255, 255, 255, 
  0, 0, 0, 0, 180, 246, 255, 255, 129, 1, 0, 0, 
  144, 248, 255, 255, 0, 0, 0, 0, 114, 253, 255, 255, 
  125, 254, 255, 255, 0, 0, 0, 0, 182, 252, 255, 255, 
  134, 3, 0, 0, 0, 0, 0, 0, 105, 13, 0, 0, 
  248, 242, 255, 255, 238, 24, 0, 0, 211, 3, 0, 0, 
  50, 213, 255, 255, 4, 0, 0, 0, 0, 32, 0, 0, 
  239, 253, 17, 6, 21, 251, 241, 34, 255, 4, 13, 49, 
  11, 5, 247, 27, 8, 2, 4, 6, 250, 16, 241, 5, 
  11, 244, 13, 254, 8, 255, 1, 19, 5, 8, 248, 17, 
  238, 245, 241, 25, 244, 12, 6, 12, 252, 5, 5, 245, 
  7, 14, 21, 1, 14, 11, 239, 17, 238, 30, 6, 240, 
  243, 22, 4, 5, 245, 228, 255, 47, 242, 4, 18, 49, 
  243, 8, 21, 252, 10, 1, 252, 248, 254, 253, 242, 23, 
  251, 254, 248, 15, 4, 223, 17, 22, 9, 251, 6, 245, 
  15, 237, 10, 35, 245, 255, 242, 242, 240, 56, 224, 249, 
  244, 0, 2, 11, 250, 238, 230, 245, 254, 13, 0, 255, 
  4, 250, 236, 248, 23, 11, 33, 38, 238, 240, 250, 9, 
  253, 252, 252, 3, 236, 247, 235, 255, 235, 7, 10, 250, 
  11, 237, 242, 244, 17, 8, 250, 241, 4, 1, 249, 251, 
  254, 239, 252, 7, 253, 247, 238, 10, 13, 248, 244, 8, 
  244, 14, 0, 243, 11, 237, 244, 14, 235, 255, 252, 252, 
  254, 241, 9, 251, 249, 255, 9, 11, 11, 8, 5, 247, 
  250, 252, 251, 6, 255, 238, 14, 244, 241, 255, 17, 250, 
  3, 15, 0, 237, 2, 17, 250, 249, 249, 247, 254, 18, 
  18, 240, 7, 248, 2, 237, 238, 242, 246, 13, 251, 11, 
  242, 255, 17, 4, 16, 254, 11, 249, 13, 245, 3, 242, 
  241, 241, 244, 253, 0, 15, 0, 1, 255, 237, 9, 248, 
  253, 9, 13, 6, 239, 247, 237, 240, 237, 1, 237, 9, 
  11, 2, 16, 248, 254, 18, 13, 2, 11, 239, 1, 5, 
  7, 250, 11, 235, 249, 245, 235, 15, 5, 9, 246, 239, 
  235, 6, 15, 4, 4, 12, 251, 12, 10, 15, 249, 12, 
  251, 249, 242, 7, 249, 251, 248, 247, 254, 8, 2, 255, 
  253, 242, 12, 9, 9, 0, 8, 2, 239, 248, 2, 10, 
  247, 4, 12, 238, 2, 250, 242, 8, 238, 241, 246, 3, 
  12, 248, 242, 8, 10, 7, 0, 250, 244, 243, 238, 12, 
  13, 252, 2, 12, 240, 4, 239, 4, 7, 243, 255, 10, 
  241, 2, 240, 13, 243, 7, 14, 253, 1, 17, 250, 0, 
  8, 15, 2, 251, 242, 1, 250, 251, 6, 246, 245, 3, 
  216, 7, 255, 243, 250, 240, 0, 0, 15, 255, 5, 181, 
  251, 238, 251, 242, 14, 247, 13, 242, 46, 4, 254, 240, 
  13, 253, 243, 14, 9, 241, 0, 13, 243, 242, 246, 245, 
  28, 7, 14, 243, 11, 250, 13, 7, 246, 5, 233, 0, 
  239, 235, 247, 4, 248, 222, 15, 251, 2, 252, 247, 1, 
  15, 3, 17, 239, 4, 37, 9, 16, 239, 247, 3, 218, 
  22, 19, 9, 6, 13, 227, 250, 240, 7, 4, 41, 232, 
  21, 18, 255, 10, 12, 10, 23, 217, 9, 253, 251, 240, 
  237, 247, 13, 241, 27, 14, 253, 13, 255, 1, 222, 1, 
  254, 2, 17, 255, 2, 251, 245, 246, 236, 11, 244, 248, 
  252, 243, 37, 248, 242, 253, 239, 13, 239, 12, 246, 242, 
  15, 9, 3, 247, 254, 8, 6, 239, 253, 239, 240, 253, 
  251, 237, 244, 5, 233, 1, 241, 4, 11, 241, 255, 16, 
  239, 12, 6, 8, 0, 255, 12, 255, 237, 252, 246, 16, 
  237, 238, 253, 3, 237, 240, 255, 3, 254, 13, 240, 253, 
  246, 0, 248, 237, 254, 241, 7, 242, 253, 250, 243, 247, 
  253, 0, 239, 9, 250, 247, 13, 6, 0, 243, 9, 10, 
  9, 4, 3, 242, 1, 250, 8, 12, 254, 4, 2, 1, 
  6, 242, 237, 250, 8, 8, 16, 10, 8, 8, 7, 1, 
  236, 245, 241, 12, 7, 249, 246, 3, 248, 240, 249, 15, 
  243, 10, 243, 242, 16, 241, 14, 3, 242, 8, 238, 17, 
  10, 14, 253, 239, 11, 0, 249, 251, 248, 248, 237, 5, 
  252, 6, 10, 231, 3, 14, 253, 14, 250, 3, 16, 244, 
  17, 216, 237, 9, 2, 238, 15, 245, 251, 7, 17, 240, 
  236, 246, 2, 253, 11, 250, 253, 193, 249, 7, 13, 13, 
  241, 255, 252, 5, 246, 243, 28, 252, 248, 240, 252, 8, 
  254, 254, 15, 3, 255, 242, 243, 11, 253, 7, 1, 250, 
  254, 1, 16, 217, 253, 250, 21, 244, 237, 12, 2, 5, 
  0, 7, 42, 248, 29, 11, 239, 254, 9, 7, 3, 0, 
  251, 7, 28, 6, 6, 249, 241, 253, 32, 14, 255, 0, 
  18, 239, 10, 255, 11, 9, 238, 254, 248, 241, 243, 243, 
  19, 245, 9, 16, 251, 13, 32, 19, 254, 8, 191, 16, 
  0, 255, 253, 241, 237, 18, 241, 14, 240, 253, 22, 37, 
  5, 254, 8, 28, 249, 254, 7, 243, 254, 16, 253, 14, 
  3, 254, 14, 1, 18, 33, 16, 16, 14, 246, 15, 16, 
  248, 14, 10, 34, 12, 11, 241, 9, 10, 244, 1, 17, 
  9, 2, 8, 8, 253, 12, 10, 244, 247, 17, 12, 8, 
  249, 247, 2, 254, 4, 0, 240, 47, 1, 249, 249, 52, 
  1, 4, 16, 243, 19, 11, 238, 254, 14, 14, 231, 8, 
  249, 235, 1, 7, 7, 236, 13, 18, 7, 2, 247, 240, 
  249, 13, 245, 11, 236, 242, 4, 237, 15, 44, 222, 12, 
  8, 254, 11, 244, 4, 246, 6, 235, 16, 1, 238, 252, 
  14, 3, 224, 4, 51, 5, 15, 8, 0, 255, 248, 243, 
  239, 16, 1, 43, 2, 9, 10, 32, 4, 253, 4, 44, 
  9, 255, 239, 8, 22, 12, 20, 10, 26, 19, 3, 14, 
  7, 34, 15, 238, 242, 254, 4, 244, 251, 241, 252, 40, 
  11, 8, 2, 244, 245, 246, 10, 249, 15, 7, 9, 0, 
  2, 2, 3, 246, 18, 35, 240, 252, 17, 252, 0, 2, 
  248, 21, 244, 25, 246, 2, 243, 48, 254, 2, 251, 11, 
  3, 21, 250, 244, 231, 245, 245, 254, 3, 12, 1, 62, 
  8, 239, 3, 249, 242, 253, 248, 15, 241, 3, 246, 31, 
  248, 9, 12, 251, 254, 57, 14, 7, 18, 8, 239, 8, 
  242, 4, 15, 11, 236, 2, 239, 7, 18, 17, 219, 6, 
  29, 253, 36, 30, 219, 9, 0, 8, 242, 13, 9, 23, 
  9, 246, 2, 38, 0, 0, 2, 31, 243, 14, 234, 7, 
  250, 14, 8, 16, 245, 240, 241, 250, 252, 22, 254, 253, 
  254, 247, 246, 8, 230, 12, 2, 29, 241, 17, 249, 247, 
  250, 1, 248, 0, 17, 0, 9, 242, 240, 2, 9, 14, 
  238, 13, 2, 236, 7, 2, 11, 17, 246, 222, 8, 58, 
  252, 241, 253, 39, 20, 249, 252, 245, 12, 1, 10, 13, 
  7, 13, 247, 12, 6, 238, 6, 28, 239, 251, 254, 3, 
  14, 12, 9, 241, 241, 11, 12, 5, 219, 6, 11, 5, 
  16, 45, 234, 250, 253, 22, 3, 252, 11, 6, 237, 250, 
  16, 17, 253, 242, 239, 238, 217, 12, 19, 17, 21, 5, 
  243, 242, 244, 10, 11, 1, 240, 2, 10, 240, 239, 5, 
  235, 11, 248, 238, 252, 254, 3, 240, 243, 14, 250, 254, 
  247, 246, 242, 0, 8, 242, 233, 1, 252, 241, 252, 239, 
  3, 1, 1, 14, 240, 6, 16, 12, 17, 16, 13, 250, 
  3, 16, 240, 244, 239, 10, 254, 254, 244, 8, 242, 18, 
  249, 251, 251, 2, 255, 2, 1, 236, 238, 242, 241, 4, 
  1, 10, 243, 242, 237, 17, 0, 232, 251, 252, 252, 248, 
  247, 252, 12, 253, 238, 11, 241, 2, 245, 252, 240, 247, 
  13, 0, 255, 6, 13, 7, 11, 251, 252, 232, 12, 247, 
  244, 0, 244, 254, 2, 18, 238, 7, 4, 247, 254, 4, 
  2, 254, 19, 9, 235, 241, 11, 254, 252, 2, 11, 241, 
  242, 243, 255, 255, 17, 247, 2, 219, 7, 13, 255, 247, 
  248, 251, 18, 246, 28, 250, 238, 241, 245, 248, 240, 237, 
  5, 249, 253, 3, 0, 12, 1, 238, 23, 18, 4, 242, 
  6, 240, 251, 244, 12, 244, 247, 255, 235, 243, 243, 2, 
  248, 215, 247, 240, 248, 245, 246, 12, 4, 16, 253, 1, 
  241, 18, 245, 2, 9, 238, 0, 239, 3, 16, 14, 12, 
  245, 235, 253, 250, 4, 12, 38, 251, 23, 16, 0, 19, 
  245, 27, 6, 232, 6, 4, 250, 250, 249, 244, 247, 236, 
  10, 15, 247, 248, 248, 12, 222, 239, 255, 19, 238, 8, 
  249, 253, 249, 231, 240, 7, 0, 0, 255, 14, 26, 10, 
  235, 244, 253, 3, 255, 12, 4, 5, 8, 246, 239, 6, 
  246, 16, 0, 203, 243, 10, 239, 11, 4, 9, 16, 251, 
  22, 219, 233, 252, 7, 251, 16, 6, 251, 252, 17, 246, 
  10, 254, 5, 13, 11, 252, 244, 188, 243, 251, 252, 7, 
  246, 239, 245, 4, 247, 252, 17, 21, 5, 238, 15, 12, 
  2, 18, 247, 254, 2, 17, 1, 6, 229, 38, 15, 9, 
  4, 253, 252, 225, 16, 238, 244, 0, 251, 250, 14, 8, 
  0, 242, 41, 242, 20, 254, 3, 16, 17, 11, 11, 232, 
  16, 12, 24, 252, 7, 5, 245, 248, 48, 249, 245, 255, 
  249, 243, 9, 247, 237, 18, 244, 15, 9, 242, 4, 2, 
  6, 18, 13, 237, 239, 236, 50, 251, 248, 241, 190, 15, 
  249, 2, 254, 234, 239, 4, 13, 17, 232, 248, 243, 253, 
  242, 12, 13, 0, 240, 241, 238, 9, 244, 0, 15, 4, 
  6, 6, 10, 11, 245, 249, 0, 248, 2, 251, 236, 2, 
  244, 6, 15, 11, 238, 243, 253, 255, 237, 239, 252, 241, 
  248, 237, 249, 251, 250, 14, 1, 0, 254, 239, 247, 255, 
  4, 245, 241, 231, 234, 251, 242, 4, 239, 248, 252, 246, 
  238, 8, 254, 4, 252, 10, 0, 246, 235, 250, 237, 237, 
  252, 250, 12, 238, 10, 5, 2, 2, 12, 6, 242, 11, 
  250, 251, 10, 249, 14, 254, 13, 242, 2, 8, 250, 17, 
  1, 240, 2, 2, 10, 4, 242, 6, 244, 3, 7, 9, 
  238, 12, 242, 11, 234, 1, 251, 5, 16, 244, 241, 253, 
  7, 13, 243, 218, 231, 253, 0, 241, 236, 10, 9, 243, 
  10, 5, 245, 11, 9, 15, 8, 10, 17, 248, 232, 18, 
  251, 230, 239, 255, 251, 247, 235, 251, 255, 244, 2, 21, 
  237, 245, 12, 243, 5, 0, 0, 241, 9, 0, 252, 251, 
  8, 250, 8, 5, 6, 226, 249, 11, 252, 244, 248, 5, 
  251, 4, 2, 221, 6, 255, 5, 17, 8, 11, 0, 14, 
  4, 0, 3, 250, 1, 15, 15, 13, 249, 254, 17, 8, 
  13, 25, 241, 242, 17, 243, 1, 8, 240, 245, 11, 253, 
  2, 253, 19, 19, 2, 215, 16, 245, 250, 0, 250, 248, 
  251, 239, 14, 19, 235, 246, 7, 243, 7, 249, 239, 255, 
  214, 255, 10, 246, 245, 10, 6, 18, 18, 241, 12, 0, 
  252, 251, 11, 10, 253, 246, 243, 19, 11, 255, 239, 5, 
  204, 254, 6, 9, 16, 251, 12, 7, 254, 248, 7, 241, 
  241, 249, 12, 11, 222, 253, 4, 251, 248, 244, 239, 242, 
  10, 243, 255, 240, 249, 240, 248, 1, 245, 253, 255, 253, 
  3, 254, 13, 8, 253, 244, 251, 16, 2, 200, 11, 19, 
  249, 19, 244, 54, 11, 14, 8, 244, 252, 16, 18, 13, 
  0, 254, 251, 2, 239, 4, 250, 15, 5, 246, 12, 21, 
  15, 2, 253, 13, 237, 254, 241, 24, 241, 240, 19, 0, 
  244, 22, 237, 249, 244, 17, 244, 8, 13, 239, 231, 7, 
  5, 15, 13, 7, 12, 252, 241, 0, 30, 248, 35, 255, 
  247, 249, 1, 250, 15, 17, 5, 10, 249, 18, 9, 30, 
  248, 11, 4, 38, 20, 7, 239, 0, 209, 247, 3, 252, 
  5, 255, 11, 253, 245, 5, 246, 243, 16, 242, 9, 10, 
  227, 9, 255, 0, 242, 245, 3, 250, 16, 18, 3, 238, 
  255, 239, 9, 231, 11, 20, 10, 15, 246, 253, 255, 19, 
  232, 10, 245, 18, 18, 212, 253, 67, 11, 7, 252, 44, 
  1, 11, 13, 254, 19, 21, 2, 6, 5, 253, 223, 24, 
  1, 248, 11, 11, 12, 249, 252, 15, 7, 240, 241, 16, 
  254, 247, 15, 2, 224, 255, 252, 12, 19, 52, 239, 3, 
  247, 0, 14, 9, 2, 252, 254, 251, 5, 8, 242, 242, 
  254, 249, 216, 239, 44, 21, 12, 32, 11, 13, 251, 249, 
  8, 2, 16, 240, 14, 252, 214, 196, 5, 14, 10, 252, 
  245, 0, 251, 223, 241, 181, 12, 235, 255, 15, 17, 5, 
  251, 244, 16, 4, 6, 4, 16, 10, 254, 16, 25, 183, 
  252, 2, 255, 3, 245, 245, 236, 15, 201, 1, 12, 245, 
  248, 199, 241, 252, 239, 254, 244, 230, 15, 12, 243, 1, 
  222, 238, 9, 1, 239, 221, 18, 187, 16, 245, 5, 7, 
  7, 245, 11, 5, 21, 246, 27, 201, 255, 247, 4, 14, 
  3, 1, 253, 212, 250, 15, 5, 224, 241, 2, 5, 219, 
  18, 11, 17, 240, 254, 246, 228, 251, 231, 17, 4, 246, 
  6, 12, 242, 248, 251, 6, 253, 246, 240, 243, 29, 14, 
  255, 236, 200, 247, 249, 245, 255, 239, 15, 13, 243, 7, 
  2, 18, 10, 249, 249, 19, 248, 11, 10, 10, 243, 17, 
  15, 245, 250, 246, 248, 247, 254, 249, 240, 241, 5, 253, 
  15, 13, 239, 17, 235, 15, 13, 245, 6, 249, 242, 242, 
  250, 237, 3, 241, 250, 238, 2, 248, 250, 5, 3, 254, 
  8, 246, 248, 247, 0, 8, 12, 247, 244, 242, 255, 247, 
  18, 7, 0, 13, 236, 15, 238, 251, 239, 244, 16, 238, 
  248, 9, 252, 9, 14, 240, 3, 11, 1, 1, 252, 248, 
  241, 11, 251, 253, 9, 12, 0, 252, 249, 19, 255, 254, 
  246, 252, 248, 9, 6, 244, 9, 255, 5, 12, 251, 241, 
  238, 11, 2, 18, 15, 18, 248, 5, 239, 238, 253, 254, 
  229, 11, 1, 16, 4, 11, 255, 4, 246, 14, 18, 34, 
  1, 237, 8, 11, 242, 244, 242, 23, 229, 6, 2, 247, 
  242, 246, 9, 17, 247, 4, 251, 243, 14, 254, 0, 248, 
  238, 0, 8, 11, 21, 23, 241, 8, 15, 248, 247, 253, 
  34, 240, 240, 2, 252, 14, 3, 4, 14, 15, 8, 240, 
  235, 12, 242, 250, 255, 228, 4, 64, 252, 254, 2, 51, 
  0, 11, 248, 6, 7, 255, 8, 15, 7, 243, 233, 16, 
  9, 10, 7, 248, 14, 236, 254, 3, 15, 5, 10, 13, 
  239, 243, 243, 13, 221, 250, 246, 242, 245, 30, 235, 243, 
  0, 13, 254, 242, 2, 6, 228, 243, 5, 4, 17, 10, 
  3, 1, 251, 18, 59, 242, 17, 27, 245, 23, 11, 241, 
  20, 254, 246, 0, 2, 6, 248, 245, 251, 7, 7, 3, 
  18, 8, 3, 232, 13, 240, 236, 243, 15, 15, 7, 14, 
  0, 2, 2, 18, 7, 4, 237, 17, 22, 12, 5, 249, 
  9, 16, 16, 254, 2, 15, 236, 5, 236, 10, 250, 7, 
  254, 227, 237, 15, 250, 14, 8, 240, 251, 12, 3, 251, 
  235, 20, 249, 11, 7, 237, 3, 242, 248, 16, 1, 253, 
  244, 229, 8, 255, 7, 242, 18, 250, 18, 8, 1, 13, 
  247, 3, 16, 253, 16, 10, 2, 234, 16, 2, 247, 234, 
  41, 15, 250, 253, 8, 1, 220, 8, 5, 5, 243, 12, 
  233, 14, 229, 0, 243, 3, 241, 3, 252, 252, 35, 15, 
  41, 253, 15, 22, 246, 15, 16, 22, 15, 247, 252, 8, 
  16, 8, 3, 5, 0, 18, 16, 2, 251, 19, 8, 23, 
  255, 255, 252, 18, 33, 6, 14, 255, 14, 8, 254, 237, 
  17, 251, 4, 244, 237, 241, 11, 27, 250, 5, 238, 22, 
  20, 12, 5, 5, 9, 14, 8, 240, 240, 10, 12, 12, 
  11, 250, 22, 246, 249, 248, 252, 249, 5, 4, 14, 40, 
  7, 247, 18, 29, 10, 250, 6, 14, 252, 246, 4, 248, 
  17, 23, 246, 17, 12, 246, 17, 31, 19, 248, 8, 1, 
  18, 239, 0, 246, 1, 10, 7, 2, 230, 252, 9, 19, 
  6, 32, 13, 246, 251, 242, 254, 240, 18, 18, 241, 18, 
  14, 3, 23, 247, 9, 4, 251, 242, 15, 21, 33, 2, 
  232, 19, 254, 248, 19, 16, 17, 16, 0, 28, 242, 16, 
  245, 253, 252, 41, 9, 238, 12, 4, 252, 250, 249, 237, 
  16, 239, 244, 246, 16, 36, 253, 239, 254, 10, 5, 5, 
  16, 243, 240, 3, 8, 32, 13, 254, 14, 1, 2, 254, 
  9, 255, 15, 0, 2, 242, 245, 9, 235, 27, 17, 3, 
  12, 6, 248, 1, 3, 253, 254, 66, 8, 248, 249, 14, 
  20, 16, 255, 5, 6, 248, 249, 10, 8, 4, 22, 13, 
  1, 236, 251, 8, 0, 254, 22, 237, 19, 13, 24, 244, 
  15, 10, 8, 251, 29, 18, 255, 4, 3, 49, 239, 251, 
  254, 1, 11, 6, 249, 5, 226, 244, 245, 239, 252, 240, 
  15, 246, 9, 10, 52, 7, 21, 47, 239, 11, 254, 15, 
  246, 15, 240, 255, 4, 234, 244, 19, 11, 6, 241, 10, 
  246, 240, 253, 245, 238, 9, 14, 255, 4, 6, 8, 240, 
  255, 13, 18, 13, 254, 251, 250, 14, 243, 244, 9, 246, 
  245, 251, 14, 252, 243, 4, 247, 253, 21, 1, 8, 251, 
  250, 4, 11, 240, 9, 1, 248, 250, 245, 250, 4, 255, 
  244, 249, 19, 6, 249, 13, 3, 1, 241, 253, 0, 8, 
  252, 237, 247, 249, 9, 255, 3, 252, 255, 10, 238, 18, 
  17, 11, 245, 9, 250, 11, 249, 248, 9, 16, 247, 1, 
  249, 249, 255, 16, 241, 239, 8, 10, 243, 12, 8, 8, 
  254, 250, 245, 245, 11, 255, 15, 4, 3, 244, 248, 13, 
  243, 237, 246, 13, 7, 255, 243, 9, 244, 12, 14, 44, 
  255, 27, 252, 20, 15, 15, 1, 17, 238, 5, 239, 14, 
  252, 18, 243, 11, 40, 14, 239, 15, 19, 32, 239, 19, 
  7, 244, 241, 14, 251, 252, 255, 36, 2, 3, 4, 8, 
  251, 11, 17, 253, 19, 248, 17, 241, 240, 11, 239, 16, 
  237, 25, 3, 0, 254, 22, 243, 6, 8, 1, 0, 32, 
  1, 16, 244, 76, 4, 247, 249, 4, 248, 7, 14, 18, 
  0, 241, 245, 26, 0, 6, 254, 41, 17, 225, 245, 255, 
  255, 15, 7, 20, 250, 12, 238, 29, 226, 252, 250, 238, 
  4, 57, 232, 7, 255, 2, 249, 247, 238, 0, 252, 15, 
  4, 253, 240, 251, 250, 242, 216, 2, 27, 245, 36, 8, 
  229, 1, 19, 245, 5, 2, 251, 12, 16, 2, 19, 42, 
  242, 16, 245, 39, 249, 238, 247, 12, 237, 3, 16, 238, 
  24, 1, 1, 1, 247, 27, 8, 251, 248, 13, 8, 242, 
  12, 251, 6, 40, 242, 11, 245, 13, 255, 247, 253, 251, 
  29, 255, 239, 19, 239, 20, 6, 6, 241, 22, 240, 237, 
  14, 23, 4, 17, 20, 224, 255, 42, 245, 11, 16, 49, 
  5, 13, 7, 4, 248, 11, 243, 247, 2, 245, 232, 31, 
  246, 248, 9, 5, 0, 249, 251, 3, 15, 1, 24, 6, 
  237, 0, 244, 31, 212, 18, 10, 251, 12, 47, 245, 239, 
  251, 248, 247, 19, 5, 4, 226, 2, 14, 245, 20, 9, 
  237, 4, 216, 7, 54, 8, 53, 32, 244, 1, 254, 10, 
  249, 248, 254, 241, 246, 253, 10, 29, 3, 253, 251, 244, 
  0, 247, 242, 17, 248, 19, 17, 251, 227, 253, 254, 252, 
  245, 242, 247, 18, 21, 255, 9, 240, 231, 255, 255, 12, 
  4, 229, 249, 9, 11, 255, 14, 239, 0, 247, 252, 217, 
  2, 12, 12, 1, 24, 227, 9, 17, 228, 230, 3, 1, 
  0, 246, 15, 205, 17, 18, 6, 27, 230, 11, 241, 251, 
  7, 4, 253, 1, 1, 23, 233, 4, 0, 11, 4, 220, 
  15, 251, 7, 20, 4, 2, 213, 9, 11, 17, 252, 5, 
  245, 4, 12, 4, 2, 223, 11, 240, 22, 5, 13, 244, 
  10, 254, 244, 3, 0, 17, 254, 251, 3, 244, 245, 2, 
  242, 247, 17, 249, 5, 1, 13, 244, 14, 1, 5, 3, 
  247, 244, 16, 251, 239, 10, 251, 240, 250, 8, 238, 16, 
  230, 246, 254, 234, 244, 235, 238, 240, 243, 1, 15, 9, 
  253, 8, 238, 11, 252, 8, 238, 250, 238, 245, 250, 251, 
  11, 15, 0, 242, 5, 8, 15, 0, 241, 5, 8, 6, 
  246, 0, 0, 243, 13, 12, 247, 5, 254, 3, 14, 253, 
  8, 250, 8, 4, 243, 241, 2, 248, 243, 247, 5, 4, 
  8, 235, 8, 11, 8, 10, 6, 3, 252, 2, 14, 255, 
  8, 1, 15, 236, 8, 3, 250, 2, 239, 247, 15, 15, 
  244, 243, 237, 0, 255, 232, 242, 251, 236, 1, 242, 244, 
  10, 14, 235, 241, 8, 255, 248, 246, 253, 241, 6, 14, 
  252, 252, 241, 7, 254, 12, 240, 19, 14, 3, 12, 16, 
  250, 251, 248, 3, 2, 248, 19, 242, 23, 250, 255, 10, 
  12, 5, 255, 254, 5, 244, 239, 243, 8, 9, 13, 10, 
  252, 248, 0, 6, 240, 253, 5, 11, 15, 10, 0, 248, 
  234, 4, 249, 247, 2, 236, 246, 14, 250, 9, 9, 253, 
  238, 0, 9, 241, 12, 7, 0, 250, 245, 247, 240, 240, 
  242, 5, 1, 250, 242, 244, 249, 248, 7, 252, 247, 3, 
  6, 239, 249, 253, 241, 16, 237, 241, 6, 13, 249, 2, 
  241, 238, 248, 3, 250, 248, 255, 17, 12, 15, 11, 4, 
  3, 242, 241, 251, 4, 243, 249, 241, 245, 6, 12, 251, 
  16, 235, 17, 18, 251, 255, 10, 14, 253, 246, 242, 14, 
  253, 5, 244, 21, 8, 4, 241, 25, 243, 14, 250, 14, 
  13, 2, 230, 5, 233, 24, 3, 244, 15, 16, 252, 15, 
  13, 255, 9, 243, 7, 250, 19, 252, 3, 6, 243, 9, 
  255, 248, 238, 10, 249, 14, 14, 7, 27, 17, 14, 10, 
  7, 250, 12, 9, 0, 30, 7, 240, 13, 242, 11, 15, 
  9, 230, 242, 44, 16, 254, 5, 48, 252, 16, 243, 246, 
  3, 10, 7, 11, 254, 3, 237, 255, 249, 247, 243, 11, 
  251, 235, 242, 14, 237, 8, 20, 7, 5, 246, 1, 9, 
  229, 17, 18, 18, 8, 17, 227, 3, 13, 12, 9, 13, 
  244, 4, 10, 20, 241, 7, 9, 6, 250, 14, 229, 244, 
  43, 246, 39, 26, 218, 13, 244, 3, 5, 240, 5, 22, 
  240, 22, 244, 29, 6, 240, 253, 42, 243, 2, 7, 13, 
  233, 18, 6, 244, 2, 12, 241, 9, 18, 20, 2, 1, 
  239, 250, 14, 243, 1, 13, 12, 28, 248, 26, 245, 241, 
  250, 9, 11, 244, 4, 249, 253, 250, 1, 240, 5, 249, 
  245, 24, 244, 249, 253, 13, 248, 241, 3, 224, 19, 60, 
  250, 241, 252, 60, 10, 248, 254, 239, 255, 247, 15, 0, 
  11, 239, 254, 15, 237, 10, 13, 255, 4, 230, 15, 252, 
  248, 251, 253, 2, 245, 243, 239, 26, 237, 246, 16, 255, 
  240, 31, 220, 239, 7, 21, 249, 255, 8, 251, 224, 248, 
  14, 251, 251, 255, 245, 244, 221, 8, 43, 254, 36, 43, 
  12, 0, 236, 253, 250, 19, 250, 11, 245, 253, 7, 7, 
  12, 249, 0, 241, 240, 237, 15, 10, 252, 9, 246, 6, 
  255, 235, 5, 239, 10, 245, 240, 19, 250, 251, 238, 241, 
  2, 2, 253, 236, 14, 7, 239, 241, 0, 3, 250, 18, 
  9, 255, 239, 12, 17, 8, 238, 9, 250, 238, 245, 3, 
  14, 247, 17, 236, 245, 242, 255, 0, 241, 1, 17, 10, 
  243, 248, 251, 18, 244, 248, 244, 255, 246, 243, 248, 250, 
  2, 254, 242, 240, 3, 243, 8, 248, 15, 15, 4, 7, 
  250, 8, 12, 238, 255, 252, 4, 252, 6, 239, 8, 5, 
  1, 7, 12, 240, 238, 13, 243, 1, 6, 238, 250, 17, 
  251, 237, 13, 2, 248, 252, 11, 9, 237, 10, 254, 243, 
  5, 242, 245, 28, 7, 6, 238, 218, 3, 12, 10, 10, 
  244, 6, 24, 229, 2, 6, 4, 248, 8, 235, 8, 0, 
  1, 17, 14, 10, 243, 240, 8, 251, 17, 239, 2, 239, 
  14, 14, 18, 238, 249, 7, 255, 10, 244, 0, 247, 246, 
  19, 231, 248, 3, 231, 6, 11, 255, 16, 20, 242, 11, 
  6, 26, 236, 25, 5, 253, 1, 220, 19, 9, 8, 245, 
  248, 237, 249, 240, 250, 2, 18, 246, 19, 249, 20, 11, 
  238, 8, 4, 231, 248, 240, 254, 233, 240, 252, 248, 228, 
  40, 3, 1, 251, 248, 24, 229, 250, 227, 8, 2, 6, 
  247, 5, 249, 5, 12, 6, 246, 15, 250, 240, 20, 5, 
  255, 12, 235, 7, 7, 19, 245, 8, 242, 244, 246, 35, 
  242, 12, 17, 9, 11, 3, 16, 4, 245, 16, 243, 21, 
  20, 238, 250, 8, 21, 17, 245, 3, 252, 4, 254, 238, 
  12, 248, 13, 241, 248, 11, 12, 235, 253, 254, 242, 8, 
  16, 7, 20, 248, 246, 16, 249, 15, 243, 253, 7, 21, 
  246, 255, 16, 14, 16, 10, 8, 254, 252, 18, 18, 11, 
  14, 249, 12, 252, 4, 239, 251, 13, 3, 249, 244, 243, 
  17, 246, 9, 8, 14, 11, 245, 15, 243, 8, 246, 251, 
  239, 3, 1, 5, 9, 241, 255, 244, 15, 15, 243, 246, 
  255, 32, 2, 251, 12, 20, 251, 15, 252, 2, 3, 242, 
  244, 8, 7, 240, 255, 10, 254, 248, 4, 252, 5, 35, 
  252, 11, 247, 241, 242, 2, 10, 9, 247, 3, 236, 10, 
  1, 239, 244, 13, 244, 235, 18, 254, 242, 251, 245, 249, 
  243, 14, 247, 241, 6, 244, 243, 253, 15, 11, 240, 1, 
  14, 236, 238, 251, 250, 1, 1, 12, 251, 250, 237, 5, 
  4, 242, 249, 239, 238, 10, 12, 252, 6, 250, 3, 255, 
  9, 7, 8, 15, 250, 10, 9, 5, 9, 2, 255, 4, 
  254, 244, 3, 16, 254, 12, 7, 253, 252, 236, 17, 252, 
  251, 252, 248, 14, 11, 0, 254, 13, 243, 238, 252, 254, 
  12, 254, 8, 12, 246, 254, 237, 239, 240, 237, 1, 3, 
  5, 248, 5, 253, 8, 254, 239, 237, 235, 19, 250, 241, 
  253, 6, 239, 238, 252, 245, 250, 245, 241, 236, 15, 249, 
  238, 248, 246, 250, 246, 3, 236, 250, 12, 13, 233, 2, 
  237, 241, 247, 237, 1, 4, 1, 235, 245, 242, 1, 238, 
  255, 2, 14, 13, 3, 7, 240, 1, 232, 9, 8, 2, 
  15, 247, 7, 242, 241, 15, 8, 3, 236, 5, 247, 247, 
  239, 0, 245, 8, 236, 251, 11, 11, 252, 0, 3, 236, 
  238, 239, 8, 245, 254, 2, 251, 3, 13, 248, 3, 249, 
  255, 254, 8, 3, 253, 241, 243, 8, 242, 1, 237, 7, 
  247, 7, 6, 250, 244, 245, 8, 0, 3, 251, 11, 9, 
  254, 12, 255, 18, 5, 247, 15, 239, 13, 255, 12, 2, 
  250, 18, 252, 1, 11, 12, 252, 12, 240, 0, 10, 250, 
  4, 8, 248, 5, 230, 20, 0, 14, 243, 240, 237, 33, 
  16, 3, 252, 21, 241, 19, 242, 9, 250, 255, 247, 6, 
  231, 5, 250, 255, 11, 243, 7, 240, 240, 28, 4, 0, 
  235, 244, 11, 244, 246, 6, 251, 5, 254, 28, 6, 13, 
  245, 248, 9, 8, 21, 0, 253, 253, 244, 254, 10, 2, 
  255, 19, 20, 246, 254, 251, 252, 252, 254, 5, 8, 46, 
  5, 1, 253, 58, 6, 7, 6, 17, 250, 10, 10, 2, 
  8, 236, 249, 31, 242, 15, 243, 253, 12, 235, 246, 247, 
  7, 13, 8, 2, 4, 250, 0, 19, 225, 8, 11, 9, 
  243, 33, 215, 254, 236, 245, 252, 241, 233, 248, 235, 246, 
  15, 6, 253, 19, 249, 8, 240, 19, 42, 15, 44, 33, 
  249, 254, 4, 243, 8, 248, 4, 0, 3, 5, 7, 37, 
  1, 14, 3, 35, 249, 12, 242, 1, 224, 17, 246, 17, 
  18, 10, 16, 16, 251, 25, 252, 238, 240, 240, 1, 255, 
  247, 8, 18, 35, 247, 245, 251, 1, 246, 6, 8, 11, 
  21, 242, 5, 241, 246, 242, 0, 255, 1, 4, 252, 6, 
  12, 8, 249, 253, 16, 228, 9, 37, 247, 237, 0, 68, 
  252, 6, 251, 243, 17, 4, 10, 18, 13, 3, 245, 28, 
  237, 253, 247, 29, 13, 247, 242, 246, 246, 12, 11, 9, 
  246, 0, 13, 3, 235, 11, 245, 238, 245, 40, 212, 6, 
  254, 240, 3, 243, 11, 13, 230, 2, 12, 238, 0, 253, 
  8, 245, 225, 17, 50, 255, 33, 4, 7, 253, 7, 9, 
  241, 244, 17, 243, 11, 1, 248, 160, 7, 10, 13, 237, 
  248, 0, 1, 237, 34, 199, 251, 250, 253, 5, 250, 245, 
  254, 13, 6, 241, 10, 249, 4, 0, 16, 255, 5, 129, 
  241, 15, 5, 255, 243, 239, 245, 6, 225, 0, 253, 253, 
  241, 204, 9, 14, 234, 238, 6, 227, 253, 239, 246, 14, 
  253, 30, 7, 236, 237, 204, 17, 174, 18, 18, 9, 254, 
  19, 247, 13, 15, 5, 238, 36, 220, 7, 5, 8, 255, 
  254, 4, 15, 219, 252, 238, 2, 239, 5, 242, 243, 201, 
  27, 245, 251, 2, 1, 15, 234, 252, 230, 13, 251, 248, 
  7, 8, 226, 251, 12, 9, 252, 254, 5, 2, 35, 254, 
  14, 3, 140, 249, 239, 252, 4, 7, 248, 246, 254, 255, 
  17, 20, 12, 21, 11, 17, 20, 32, 18, 248, 254, 248, 
  1, 10, 18, 15, 18, 4, 11, 7, 17, 4, 19, 14, 
  14, 243, 0, 16, 12, 19, 1, 11, 3, 3, 11, 6, 
  10, 15, 9, 17, 16, 251, 254, 12, 15, 3, 12, 249, 
  240, 1, 245, 9, 239, 7, 253, 1, 254, 248, 242, 22, 
  248, 7, 8, 29, 18, 254, 1, 250, 239, 1, 248, 5, 
  238, 5, 7, 248, 17, 9, 242, 255, 253, 234, 253, 250, 
  245, 241, 253, 14, 5, 13, 15, 10, 220, 0, 4, 247, 
  15, 30, 4, 7, 2, 246, 14, 13, 2, 1, 251, 240, 
  5, 11, 15, 238, 240, 4, 242, 249, 28, 5, 30, 28, 
  243, 10, 17, 3, 15, 238, 242, 25, 17, 6, 15, 2, 
  16, 249, 0, 21, 3, 1, 239, 252, 234, 18, 251, 19, 
  34, 3, 240, 19, 239, 26, 2, 252, 9, 242, 254, 8, 
  251, 16, 11, 10, 247, 7, 243, 245, 251, 251, 20, 246, 
  16, 9, 6, 243, 11, 0, 13, 6, 7, 24, 253, 13, 
  0, 253, 238, 6, 0, 232, 8, 30, 11, 6, 9, 57, 
  8, 255, 255, 17, 12, 250, 241, 20, 9, 238, 0, 12, 
  245, 15, 241, 18, 3, 244, 12, 22, 15, 4, 10, 14, 
  6, 242, 12, 16, 4, 6, 2, 241, 8, 19, 232, 251, 
  9, 19, 238, 241, 12, 243, 238, 250, 7, 240, 14, 3, 
  13, 4, 224, 3, 34, 19, 253, 18, 226, 239, 11, 246, 
  3, 255, 14, 18, 251, 19, 0, 35, 8, 7, 19, 30, 
  17, 248, 250, 252, 223, 18, 245, 252, 7, 239, 14, 238, 
  12, 22, 21, 19, 241, 247, 6, 242, 245, 9, 18, 14, 
  248, 248, 247, 16, 9, 6, 2, 241, 10, 3, 7, 9, 
  8, 26, 237, 1, 1, 18, 245, 8, 250, 247, 7, 1, 
  1, 250, 247, 46, 243, 20, 1, 52, 0, 240, 15, 246, 
  254, 244, 13, 249, 19, 248, 255, 34, 12, 0, 240, 255, 
  17, 223, 250, 250, 11, 18, 13, 251, 9, 9, 241, 13, 
  230, 6, 247, 14, 19, 35, 238, 14, 6, 2, 0, 15, 
  21, 248, 230, 11, 11, 250, 19, 242, 240, 243, 220, 240, 
  36, 245, 32, 14, 247, 13, 253, 253, 20, 241, 17, 42, 
  252, 28, 19, 253, 1, 241, 247, 43, 245, 6, 250, 255, 
  1, 249, 255, 17, 16, 246, 13, 1, 239, 36, 24, 0, 
  0, 7, 248, 3, 246, 253, 12, 234, 18, 9, 14, 1, 
  6, 249, 1, 252, 23, 4, 17, 2, 17, 246, 11, 16, 
  5, 27, 24, 10, 3, 23, 14, 245, 247, 19, 19, 34, 
  13, 14, 6, 43, 16, 6, 15, 8, 0, 246, 254, 249, 
  247, 8, 8, 247, 13, 250, 0, 1, 18, 249, 8, 253, 
  247, 7, 5, 13, 240, 16, 7, 27, 7, 254, 1, 4, 
  7, 31, 253, 18, 11, 25, 12, 3, 236, 9, 255, 237, 
  15, 245, 6, 237, 14, 0, 251, 10, 53, 235, 253, 43, 
  243, 248, 17, 242, 12, 0, 0, 19, 251, 245, 0, 4, 
  3, 253, 17, 4, 252, 255, 1, 250, 26, 16, 249, 5, 
  252, 240, 18, 14, 15, 21, 20, 247, 11, 18, 250, 240, 
  21, 8, 0, 16, 11, 5, 4, 1, 7, 240, 17, 0, 
  11, 9, 9, 25, 7, 249, 5, 251, 9, 19, 10, 0, 
  16, 253, 0, 245, 255, 18, 250, 32, 250, 4, 16, 11, 
  5, 246, 246, 239, 3, 0, 8, 22, 6, 244, 5, 247, 
  9, 1, 12, 250, 240, 235, 0, 240, 240, 241, 19, 0, 
  7, 251, 18, 25, 13, 244, 11, 245, 6, 49, 239, 244, 
  245, 10, 0, 0, 234, 11, 250, 230, 248, 237, 255, 19, 
  247, 240, 3, 1, 58, 12, 253, 15, 246, 2, 18, 6, 
  248, 7, 255, 240, 238, 245, 6, 7, 5, 12, 250, 0, 
  253, 5, 6, 16, 230, 211, 9, 13, 238, 240, 244, 16, 
  240, 0, 247, 250, 246, 252, 7, 15, 249, 19, 254, 218, 
  20, 16, 8, 17, 252, 1, 11, 243, 255, 250, 244, 6, 
  252, 2, 255, 234, 246, 13, 17, 236, 236, 236, 240, 248, 
  16, 237, 246, 0, 9, 22, 241, 242, 238, 9, 12, 240, 
  11, 12, 19, 237, 16, 5, 5, 2, 1, 250, 1, 239, 
  0, 225, 247, 18, 254, 7, 234, 11, 249, 254, 243, 247, 
  234, 15, 14, 15, 251, 1, 15, 16, 250, 251, 245, 251, 
  250, 5, 16, 2, 21, 11, 255, 18, 252, 244, 9, 247, 
  5, 246, 219, 14, 2, 5, 239, 252, 7, 18, 252, 11, 
  13, 250, 8, 14, 1, 9, 9, 1, 243, 251, 235, 241, 
  9, 244, 246, 253, 7, 254, 7, 251, 237, 17, 1, 237, 
  247, 19, 3, 0, 3, 15, 11, 5, 254, 14, 237, 249, 
  253, 12, 240, 19, 249, 11, 250, 250, 11, 7, 17, 252, 
  247, 1, 255, 246, 12, 5, 248, 16, 254, 12, 253, 7, 
  13, 3, 8, 16, 6, 17, 2, 7, 0, 9, 248, 237, 
  14, 4, 255, 9, 6, 250, 10, 245, 247, 237, 239, 15, 
  18, 241, 243, 252, 249, 249, 11, 236, 236, 6, 2, 250, 
  5, 244, 2, 243, 250, 235, 0, 15, 248, 251, 240, 7, 
  255, 2, 240, 5, 252, 238, 244, 254, 244, 246, 254, 1, 
  253, 249, 247, 249, 16, 238, 241, 252, 248, 3, 237, 209, 
  255, 252, 253, 242, 247, 8, 7, 230, 12, 199, 255, 241, 
  15, 240, 253, 7, 7, 235, 15, 2, 13, 240, 12, 243, 
  12, 1, 19, 171, 2, 10, 9, 20, 11, 8, 235, 238, 
  221, 242, 1, 254, 239, 226, 7, 253, 248, 11, 19, 234, 
  252, 253, 250, 242, 232, 250, 12, 235, 8, 235, 12, 208, 
  14, 251, 5, 12, 252, 252, 4, 20, 8, 247, 42, 228, 
  22, 247, 248, 252, 253, 252, 9, 243, 12, 1, 20, 240, 
  8, 16, 252, 252, 31, 240, 5, 241, 242, 7, 236, 238, 
  239, 4, 4, 18, 239, 5, 237, 243, 18, 237, 0, 3, 
  242, 242, 29, 249, 241, 239, 191, 253, 8, 247, 249, 239, 
  255, 241, 253, 34, 8, 30, 243, 30, 10, 245, 17, 23, 
  242, 253, 250, 22, 252, 2, 250, 12, 15, 14, 11, 252, 
  246, 24, 253, 3, 14, 14, 2, 254, 243, 241, 3, 31, 
  5, 33, 251, 249, 11, 9, 1, 13, 36, 249, 14, 240, 
  246, 1, 17, 18, 242, 20, 253, 245, 236, 250, 245, 11, 
  17, 9, 242, 68, 1, 16, 242, 79, 2, 16, 18, 242, 
  15, 3, 242, 0, 243, 248, 236, 26, 244, 238, 243, 49, 
  4, 246, 15, 252, 18, 1, 8, 3, 18, 17, 13, 12, 
  232, 240, 14, 243, 241, 34, 0, 239, 247, 10, 247, 9, 
  12, 19, 16, 250, 5, 240, 238, 241, 9, 246, 222, 12, 
  60, 242, 38, 38, 232, 8, 14, 242, 12, 12, 244, 9, 
  21, 15, 244, 48, 249, 1, 8, 33, 237, 18, 242, 1, 
  238, 26, 252, 13, 4, 253, 249, 253, 243, 26, 250, 17, 
  250, 246, 241, 2, 236, 244, 237, 20, 254, 253, 251, 10, 
  241, 236, 252, 254, 42, 254, 19, 238, 243, 16, 249, 251, 
  240, 22, 251, 10, 12, 2, 14, 10, 248, 235, 10, 68, 
  14, 18, 1, 67, 11, 5, 18, 7, 246, 9, 253, 241, 
  15, 242, 243, 14, 244, 21, 18, 18, 3, 237, 242, 252, 
  246, 12, 251, 9, 254, 0, 8, 21, 213, 11, 255, 239, 
  10, 25, 230, 14, 241, 23, 242, 254, 6, 19, 230, 236, 
  248, 238, 10, 2, 11, 16, 235, 245, 40, 244, 22, 32, 
  230, 10, 248, 12, 14, 244, 244, 34, 5, 10, 16, 42, 
  20, 17, 240, 24, 251, 0, 8, 245, 242, 0, 244, 19, 
  7, 250, 11, 5, 4, 248, 248, 245, 4, 241, 6, 4, 
  242, 2, 14, 29, 9, 24, 8, 253, 17, 6, 254, 7, 
  9, 240, 239, 11, 17, 241, 248, 9, 9, 253, 239, 253, 
  254, 15, 4, 247, 246, 230, 248, 39, 247, 19, 248, 31, 
  244, 245, 252, 14, 238, 248, 5, 13, 245, 18, 249, 249, 
  253, 15, 247, 17, 241, 5, 253, 9, 243, 248, 254, 255, 
  255, 18, 7, 16, 231, 245, 17, 17, 3, 18, 234, 251, 
  15, 239, 9, 242, 3, 239, 6, 3, 241, 241, 248, 10, 
  254, 16, 231, 247, 34, 244, 36, 9, 3, 4, 252, 1, 
  246, 11, 255, 19, 244, 51, 250, 252, 246, 3, 2, 41, 
  254, 15, 5, 10, 240, 240, 16, 254, 19, 251, 12, 8, 
  249, 41, 234, 12, 251, 13, 241, 11, 16, 12, 11, 240, 
  252, 23, 18, 255, 229, 2, 255, 240, 7, 10, 236, 2, 
  237, 5, 6, 247, 3, 33, 7, 250, 244, 33, 15, 244, 
  246, 16, 251, 34, 1, 0, 18, 237, 250, 254, 240, 8, 
  1, 2, 9, 10, 235, 242, 237, 8, 245, 238, 2, 30, 
  11, 20, 245, 22, 10, 3, 242, 2, 246, 255, 238, 252, 
  1, 239, 245, 9, 5, 32, 19, 2, 250, 12, 246, 253, 
  5, 254, 22, 13, 6, 10, 16, 7, 6, 243, 241, 3, 
  31, 5, 9, 28, 0, 252, 5, 252, 11, 237, 245, 3, 
  244, 251, 17, 15, 253, 0, 20, 2, 251, 4, 237, 9, 
  231, 8, 6, 18, 27, 252, 9, 244, 253, 255, 22, 11, 
  3, 240, 10, 13, 241, 14, 2, 32, 248, 6, 239, 5, 
  253, 0, 19, 243, 30, 5, 0, 0, 17, 254, 247, 242, 
  16, 254, 246, 6, 252, 2, 245, 255, 5, 247, 255, 43, 
  241, 21, 242, 49, 12, 246, 8, 2, 252, 236, 14, 7, 
  245, 15, 245, 13, 250, 17, 0, 7, 5, 7, 250, 7, 
  252, 4, 16, 8, 245, 17, 4, 28, 231, 248, 250, 1, 
  4, 36, 230, 255, 249, 3, 244, 241, 14, 239, 12, 245, 
  15, 238, 253, 240, 5, 12, 222, 243, 36, 3, 34, 6, 
  242, 251, 245, 1, 246, 237, 8, 24, 253, 20, 248, 36, 
  239, 9, 248, 32, 8, 16, 240, 3, 241, 24, 6, 244, 
  31, 12, 5, 252, 14, 251, 5, 9, 4, 248, 2, 2, 
  250, 12, 2, 26, 14, 16, 4, 0, 251, 3, 245, 9, 
  24, 6, 4, 250, 2, 7, 6, 9, 6, 2, 19, 6, 
  11, 3, 254, 250, 11, 240, 1, 48, 245, 18, 251, 64, 
  4, 247, 4, 238, 254, 238, 6, 248, 246, 252, 244, 3, 
  4, 10, 250, 35, 5, 247, 22, 1, 245, 247, 248, 9, 
  19, 15, 5, 30, 224, 243, 1, 252, 3, 39, 246, 238, 
  11, 0, 248, 249, 239, 4, 234, 9, 248, 15, 239, 250, 
  248, 0, 239, 2, 50, 10, 21, 37, 225, 2, 11, 5, 
  252, 238, 13, 10, 7, 250, 16, 65, 253, 9, 11, 39, 
  253, 250, 4, 254, 243, 26, 243, 247, 21, 242, 248, 255, 
  6, 29, 6, 6, 245, 16, 246, 17, 255, 244, 13, 22, 
  6, 254, 0, 7, 239, 251, 242, 9, 29, 250, 17, 236, 
  249, 11, 238, 252, 245, 5, 17, 14, 250, 15, 241, 8, 
  245, 216, 11, 70, 255, 251, 244, 80, 15, 0, 244, 1, 
  2, 1, 15, 253, 13, 12, 237, 6, 255, 6, 12, 48, 
  0, 2, 238, 4, 5, 240, 244, 252, 244, 5, 13, 13, 
  205, 242, 7, 253, 3, 47, 220, 249, 13, 240, 6, 244, 
  17, 253, 234, 9, 8, 252, 254, 245, 4, 13, 234, 6, 
  46, 242, 29, 30, 2, 9, 243, 244, 249, 243, 15, 58, 
  18, 27, 16, 14, 243, 250, 13, 34, 5, 7, 13, 14, 
  2, 18, 249, 241, 29, 254, 255, 253, 244, 42, 241, 12, 
  248, 4, 242, 248, 11, 252, 2, 18, 250, 43, 249, 233, 
  236, 251, 234, 246, 249, 246, 1, 3, 14, 241, 16, 4, 
  240, 36, 5, 0, 15, 20, 7, 231, 240, 6, 245, 46, 
  6, 233, 18, 253, 251, 255, 249, 6, 246, 235, 2, 16, 
  232, 240, 18, 18, 250, 8, 254, 254, 16, 19, 242, 241, 
  15, 7, 243, 247, 240, 4, 9, 13, 9, 239, 246, 244, 
  235, 29, 237, 3, 222, 14, 239, 254, 241, 4, 239, 255, 
  2, 0, 248, 5, 245, 246, 6, 239, 67, 254, 18, 49, 
  15, 246, 15, 249, 4, 11, 11, 12, 237, 2, 8, 27, 
  238, 255, 251, 29, 247, 233, 243, 19, 21, 5, 4, 9, 
  52, 240, 240, 6, 252, 34, 13, 3, 2, 13, 248, 11, 
  241, 10, 3, 15, 13, 21, 5, 10, 239, 246, 244, 254, 
  33, 235, 1, 12, 8, 18, 8, 7, 3, 17, 239, 5, 
  16, 3, 7, 14, 245, 253, 253, 38, 6, 244, 9, 54, 
  244, 251, 248, 6, 246, 252, 236, 243, 5, 12, 236, 26, 
  0, 253, 249, 35, 11, 1, 7, 251, 245, 248, 2, 10, 
  246, 247, 4, 8, 247, 3, 244, 239, 245, 25, 8, 13, 
  248, 17, 12, 1, 254, 15, 4, 15, 232, 2, 12, 243, 
  245, 9, 219, 17, 34, 245, 37, 36, 33, 229, 241, 13, 
  15, 246, 246, 255, 255, 2, 9, 40, 243, 1, 10, 244, 
  244, 15, 244, 12, 21, 12, 15, 248, 33, 249, 5, 239, 
  239, 251, 10, 3, 10, 250, 14, 17, 6, 244, 244, 1, 
  246, 2, 248, 22, 4, 22, 21, 250, 0, 28, 255, 7, 
  253, 22, 11, 14, 24, 3, 250, 7, 235, 253, 241, 14, 
  21, 236, 12, 201, 255, 28, 17, 8, 5, 18, 255, 18, 
  239, 3, 13, 11, 252, 26, 245, 16, 243, 246, 18, 253, 
  241, 6, 252, 6, 240, 243, 4, 12, 5, 250, 251, 15, 
  246, 253, 0, 2, 2, 224, 9, 18, 9, 250, 249, 0, 
  251, 244, 25, 249, 15, 248, 244, 12, 255, 1, 3, 250, 
  242, 4, 5, 245, 228, 255, 249, 12, 22, 15, 251, 24, 
  243, 241, 249, 190, 240, 15, 7, 14, 12, 255, 40, 235, 
  26, 241, 243, 250, 255, 249, 249, 13, 238, 243, 9, 9, 
  238, 19, 6, 243, 26, 3, 21, 225, 233, 240, 241, 246, 
  14, 18, 232, 251, 236, 10, 4, 26, 247, 228, 250, 3, 
  3, 17, 12, 7, 250, 244, 242, 8, 233, 23, 238, 249, 
  238, 230, 18, 217, 255, 243, 244, 4, 240, 245, 252, 10, 
  242, 235, 50, 245, 20, 245, 9, 251, 240, 28, 8, 223, 
  244, 246, 254, 9, 8, 15, 0, 254, 41, 9, 246, 253, 
  237, 247, 234, 247, 244, 251, 5, 245, 249, 254, 247, 250, 
  13, 4, 247, 240, 249, 3, 24, 13, 248, 241, 247, 1, 
  20, 235, 8, 18, 246, 255, 11, 243, 13, 251, 10, 50, 
  250, 251, 248, 0, 254, 249, 225, 23, 238, 244, 7, 18, 
  235, 6, 14, 18, 245, 236, 249, 2, 16, 255, 18, 4, 
  230, 14, 252, 5, 21, 3, 2, 19, 248, 252, 4, 254, 
  254, 11, 243, 233, 14, 29, 3, 249, 2, 232, 251, 12, 
  238, 7, 241, 9, 12, 241, 14, 202, 13, 21, 16, 14, 
  213, 1, 244, 251, 245, 15, 253, 11, 254, 251, 238, 5, 
  236, 9, 4, 211, 251, 19, 227, 9, 7, 3, 233, 7, 
  242, 13, 2, 9, 248, 12, 2, 245, 8, 213, 32, 237, 
  10, 253, 8, 9, 19, 5, 248, 9, 7, 240, 242, 250, 
  11, 250, 240, 242, 223, 17, 15, 224, 11, 238, 11, 253, 
  243, 246, 12, 252, 236, 248, 246, 238, 238, 9, 252, 255, 
  246, 0, 14, 10, 253, 233, 240, 242, 15, 7, 248, 255, 
  241, 8, 4, 238, 242, 12, 249, 252, 4, 12, 12, 7, 
  1, 3, 248, 252, 3, 245, 251, 13, 242, 238, 253, 16, 
  240, 0, 8, 15, 15, 248, 254, 245, 8, 11, 10, 235, 
  253, 0, 13, 248, 250, 246, 13, 12, 247, 244, 247, 247, 
  245, 11, 0, 7, 254, 235, 252, 243, 238, 14, 19, 13, 
  16, 0, 237, 243, 15, 18, 15, 4, 9, 4, 7, 239, 
  249, 252, 255, 1, 250, 246, 11, 7, 255, 241, 10, 255, 
  245, 249, 13, 238, 9, 244, 255, 4, 5, 249, 239, 7, 
  10, 14, 10, 245, 238, 7, 0, 4, 7, 4, 250, 8, 
  8, 0, 254, 44, 14, 8, 251, 11, 15, 251, 255, 27, 
  251, 255, 13, 6, 254, 13, 4, 238, 251, 26, 15, 251, 
  245, 14, 243, 16, 1, 14, 246, 8, 18, 21, 14, 246, 
  12, 255, 253, 239, 42, 11, 245, 240, 253, 20, 243, 11, 
  11, 6, 0, 249, 250, 7, 1, 11, 254, 240, 21, 50, 
  1, 248, 7, 51, 247, 250, 7, 18, 18, 15, 248, 246, 
  2, 6, 249, 29, 239, 20, 243, 43, 10, 253, 6, 11, 
  1, 7, 20, 247, 15, 241, 5, 29, 224, 253, 252, 6, 
  246, 29, 221, 250, 252, 254, 251, 15, 3, 242, 248, 236, 
  253, 4, 9, 238, 240, 252, 210, 249, 42, 255, 18, 35, 
  240, 241, 2, 2, 9, 5, 13, 11, 14, 239, 1, 11, 
  246, 254, 241, 245, 245, 5, 16, 16, 14, 4, 1, 9, 
  255, 243, 236, 11, 240, 17, 238, 242, 243, 249, 7, 8, 
  245, 248, 248, 245, 248, 0, 238, 11, 252, 240, 0, 241, 
  251, 248, 250, 1, 254, 6, 10, 13, 11, 13, 250, 2, 
  11, 240, 247, 251, 240, 5, 242, 13, 250, 15, 253, 246, 
  17, 10, 251, 11, 249, 4, 242, 249, 252, 12, 238, 239, 
  244, 11, 243, 244, 10, 8, 237, 13, 255, 239, 245, 238, 
  1, 14, 18, 13, 8, 13, 11, 15, 249, 2, 235, 11, 
  242, 235, 237, 5, 251, 19, 249, 2, 254, 1, 1, 242, 
  255, 2, 14, 249, 4, 8, 234, 240, 246, 13, 251, 4, 
  244, 2, 1, 29, 4, 1, 4, 16, 7, 12, 21, 23, 
  242, 19, 14, 11, 240, 18, 19, 249, 248, 242, 19, 3, 
  253, 16, 11, 243, 20, 254, 12, 7, 19, 242, 250, 2, 
  8, 16, 246, 247, 20, 10, 4, 240, 29, 252, 18, 1, 
  9, 251, 4, 19, 243, 3, 244, 13, 16, 2, 251, 255, 
  243, 250, 23, 34, 13, 0, 12, 35, 6, 0, 18, 251, 
  252, 241, 14, 7, 4, 240, 237, 4, 241, 17, 9, 10, 
  244, 236, 17, 9, 17, 255, 19, 250, 1, 5, 245, 255, 
  231, 17, 249, 2, 242, 53, 218, 255, 252, 0, 18, 245, 
  241, 8, 237, 252, 241, 254, 17, 5, 11, 3, 230, 243, 
  29, 10, 29, 27, 238, 248, 248, 255, 4, 244, 0, 252, 
  248, 241, 0, 255, 234, 1, 240, 17, 243, 247, 249, 248, 
  10, 14, 15, 245, 15, 14, 249, 239, 10, 246, 16, 2, 
  242, 17, 236, 16, 0, 235, 237, 6, 10, 12, 243, 244, 
  245, 7, 241, 18, 4, 8, 245, 13, 13, 254, 240, 12, 
  15, 254, 12, 243, 253, 254, 11, 255, 238, 11, 1, 7, 
  4, 15, 6, 3, 2, 5, 240, 4, 240, 252, 14, 2, 
  12, 249, 253, 8, 239, 11, 250, 243, 1, 255, 247, 244, 
  252, 12, 13, 12, 249, 16, 9, 243, 248, 242, 16, 9, 
  1, 10, 237, 250, 242, 244, 2, 14, 5, 0, 236, 247, 
  255, 9, 244, 13, 13, 12, 7, 15, 245, 249, 252, 5, 
  9, 243, 9, 9, 6, 5, 11, 8, 15, 14, 246, 45, 
  6, 242, 12, 17, 238, 16, 240, 10, 237, 4, 241, 7, 
  253, 15, 13, 255, 243, 16, 18, 11, 6, 15, 243, 11, 
  252, 15, 247, 26, 253, 5, 240, 251, 247, 8, 9, 4, 
  18, 12, 253, 252, 238, 21, 18, 11, 17, 23, 15, 4, 
  1, 243, 13, 3, 255, 227, 248, 52, 15, 20, 4, 45, 
  16, 255, 0, 17, 18, 12, 244, 14, 244, 10, 247, 13, 
  2, 255, 250, 23, 8, 235, 0, 251, 243, 6, 242, 255, 
  6, 248, 10, 11, 223, 1, 16, 13, 246, 10, 236, 254, 
  253, 245, 254, 9, 4, 248, 231, 4, 250, 242, 16, 12, 
  3, 242, 220, 1, 46, 251, 44, 26, 62, 245, 255, 255, 
  4, 0, 0, 0, 0, 1, 0, 0, 203, 21, 0, 0, 
  203, 242, 255, 255, 215, 244, 255, 255, 139, 23, 0, 0, 
  147, 248, 255, 255, 27, 0, 0, 0, 181, 8, 0, 0, 
  48, 19, 0, 0, 125, 15, 0, 0, 54, 8, 0, 0, 
  36, 20, 0, 0, 32, 252, 255, 255, 120, 240, 255, 255, 
  185, 253, 255, 255, 242, 253, 255, 255, 205, 1, 0, 0, 
  23, 10, 0, 0, 97, 248, 255, 255, 53, 18, 0, 0, 
  129, 21, 0, 0, 104, 18, 0, 0, 165, 20, 0, 0, 
  66, 250, 255, 255, 218, 20, 0, 0, 100, 19, 0, 0, 
  179, 231, 255, 255, 243, 238, 255, 255, 191, 243, 255, 255, 
  198, 13, 0, 0, 197, 12, 0, 0, 115, 247, 255, 255, 
  226, 18, 0, 0, 85, 15, 0, 0, 124, 239, 255, 255, 
  131, 243, 255, 255, 237, 13, 0, 0, 70, 17, 0, 0, 
  34, 5, 0, 0, 100, 15, 0, 0, 18, 14, 0, 0, 
  249, 3, 0, 0, 234, 16, 0, 0, 136, 18, 0, 0, 
  30, 246, 255, 255, 108, 247, 255, 255, 128, 6, 0, 0, 
  243, 19, 0, 0, 128, 21, 0, 0, 225, 16, 0, 0, 
  93, 248, 255, 255, 153, 20, 0, 0, 240, 13, 0, 0, 
  9, 18, 0, 0, 233, 12, 0, 0, 85, 14, 0, 0, 
  24, 224, 255, 255, 162, 28, 0, 0, 209, 218, 255, 255, 
  37, 244, 255, 255, 180, 12, 0, 0, 251, 244, 255, 255, 
  128, 22, 0, 0, 167, 245, 255, 255, 212, 14, 0, 0, 
  74, 246, 255, 255, 4, 0, 0, 0, 0, 8, 0, 0, 
  205, 241, 11, 34, 40, 53, 211, 23, 208, 28, 53, 45, 
  219, 25, 2, 235, 83, 243, 189, 45, 220, 228, 212, 222, 
  7, 35, 47, 197, 221, 248, 211, 220, 15, 203, 228, 218, 
  234, 46, 217, 226, 241, 35, 225, 47, 226, 221, 183, 212, 
  26, 200, 199, 199, 192, 53, 1, 252, 222, 6, 47, 184, 
  36, 55, 45, 210, 43, 211, 220, 30, 18, 28, 244, 221, 
  238, 247, 69, 70, 225, 45, 20, 220, 79, 234, 215, 57, 
  65, 27, 223, 9, 13, 4, 234, 239, 3, 49, 19, 8, 
  54, 204, 14, 55, 17, 88, 41, 35, 7, 22, 1, 249, 
  231, 251, 202, 210, 251, 56, 35, 214, 216, 11, 238, 4, 
  95, 5, 251, 226, 219, 44, 242, 225, 229, 251, 27, 66, 
  243, 26, 20, 33, 21, 221, 67, 82, 41, 23, 209, 224, 
  78, 1, 220, 52, 48, 1, 218, 10, 32, 253, 237, 221, 
  8, 218, 36, 42, 13, 245, 207, 21, 12, 0, 47, 29, 
  225, 34, 63, 212, 50, 17, 236, 21, 235, 65, 1, 239, 
  236, 21, 16, 11, 1, 74, 238, 252, 17, 54, 239, 247, 
  247, 48, 47, 251, 243, 26, 196, 2, 194, 224, 194, 32, 
  16, 234, 209, 13, 45, 40, 41, 238, 234, 18, 239, 37, 
  200, 233, 210, 23, 252, 232, 235, 230, 19, 231, 246, 10, 
  253, 206, 255, 27, 5, 223, 224, 211, 202, 224, 34, 35, 
  225, 56, 7, 228, 44, 22, 26, 225, 252, 33, 2, 5, 
  224, 247, 46, 27, 14, 3, 218, 206, 16, 230, 2, 224, 
  20, 253, 9, 181, 199, 198, 219, 25, 129, 29, 238, 47, 
  206, 234, 16, 43, 52, 210, 41, 45, 237, 250, 56, 189, 
  224, 236, 41, 52, 56, 221, 243, 44, 63, 11, 53, 242, 
  249, 15, 59, 0, 239, 231, 51, 251, 51, 255, 228, 201, 
  16, 190, 207, 21, 40, 44, 214, 217, 58, 11, 211, 241, 
  233, 24, 233, 28, 11, 206, 3, 198, 227, 216, 53, 32, 
  169, 215, 42, 34, 53, 55, 244, 239, 20, 197, 29, 28, 
  36, 58, 205, 17, 57, 17, 230, 27, 232, 12, 41, 37, 
  55, 34, 18, 194, 253, 225, 38, 18, 51, 253, 43, 41, 
  51, 23, 47, 37, 45, 211, 223, 4, 227, 40, 43, 38, 
  197, 215, 34, 254, 13, 211, 224, 233, 30, 44, 216, 52, 
  228, 2, 199, 215, 23, 24, 231, 215, 13, 199, 49, 219, 
  229, 36, 38, 42, 30, 43, 2, 0, 228, 45, 18, 212, 
  32, 234, 200, 239, 2, 252, 222, 10, 235, 36, 221, 205, 
  31, 14, 202, 35, 19, 230, 8, 35, 237, 191, 198, 238, 
  248, 22, 43, 18, 48, 233, 218, 5, 34, 244, 255, 31, 
  26, 221, 24, 1, 5, 235, 29, 226, 210, 35, 10, 252, 
  223, 224, 1, 62, 56, 194, 37, 52, 54, 64, 55, 238, 
  233, 243, 49, 229, 47, 208, 47, 248, 234, 50, 205, 213, 
  248, 204, 16, 14, 234, 58, 205, 20, 231, 241, 240, 253, 
  243, 213, 49, 228, 231, 225, 223, 242, 205, 35, 204, 4, 
  8, 200, 209, 2, 28, 1, 212, 213, 216, 244, 17, 196, 
  36, 27, 18, 252, 41, 2, 203, 236, 226, 208, 202, 240, 
  231, 34, 253, 194, 22, 211, 35, 12, 232, 237, 213, 40, 
  13, 188, 203, 53, 218, 9, 14, 222, 197, 9, 43, 220, 
  32, 7, 199, 19, 249, 35, 42, 209, 0, 24, 228, 253, 
  5, 231, 59, 225, 201, 224, 4, 216, 34, 29, 227, 181, 
  249, 1, 45, 224, 229, 212, 242, 224, 250, 229, 212, 249, 
  254, 172, 1, 249, 16, 248, 213, 15, 234, 234, 31, 2, 
  57, 253, 44, 37, 221, 40, 252, 189, 3, 207, 16, 234, 
  242, 47, 42, 5, 36, 199, 31, 191, 214, 189, 236, 21, 
  17, 17, 60, 7, 213, 31, 208, 50, 0, 9, 194, 10, 
  42, 35, 38, 83, 32, 6, 6, 24, 88, 55, 244, 255, 
  212, 21, 70, 60, 44, 68, 234, 51, 209, 4, 39, 61, 
  57, 47, 245, 251, 248, 71, 211, 44, 227, 217, 36, 20, 
  219, 62, 227, 250, 26, 252, 29, 28, 204, 55, 20, 237, 
  250, 221, 247, 248, 200, 225, 236, 4, 13, 226, 58, 254, 
  208, 10, 41, 20, 221, 211, 0, 218, 220, 23, 38, 223, 
  149, 208, 70, 34, 20, 49, 255, 56, 41, 191, 234, 217, 
  37, 64, 27, 233, 217, 36, 223, 6, 245, 182, 21, 11, 
  219, 21, 57, 219, 36, 36, 14, 233, 230, 248, 63, 27, 
  41, 227, 245, 4, 212, 213, 11, 39, 32, 60, 0, 61, 
  24, 227, 243, 201, 7, 236, 2, 57, 31, 230, 28, 22, 
  0, 16, 247, 221, 205, 220, 209, 240, 249, 2, 230, 222, 
  20, 4, 25, 1, 240, 220, 218, 25, 245, 25, 212, 235, 
  32, 21, 11, 240, 245, 208, 189, 232, 45, 233, 56, 230, 
  56, 246, 52, 45, 222, 200, 69, 247, 234, 207, 26, 210, 
  19, 30, 255, 36, 52, 213, 212, 220, 220, 53, 26, 211, 
  232, 251, 236, 250, 48, 238, 26, 252, 201, 222, 62, 246, 
  210, 73, 3, 255, 38, 224, 61, 213, 219, 247, 245, 250, 
  250, 53, 219, 245, 31, 56, 17, 210, 51, 39, 222, 186, 
  236, 236, 6, 23, 212, 49, 29, 251, 31, 46, 253, 204, 
  75, 253, 254, 52, 10, 1, 21, 13, 19, 31, 30, 248, 
  49, 239, 5, 245, 65, 35, 23, 248, 5, 37, 24, 31, 
  182, 236, 33, 240, 253, 40, 26, 215, 70, 15, 235, 241, 
  10, 46, 31, 246, 60, 12, 13, 225, 17, 236, 235, 51, 
  4, 32, 213, 23, 217, 26, 249, 50, 28, 226, 3, 39, 
  40, 39, 14, 200, 209, 238, 210, 241, 34, 21, 232, 32, 
  22, 207, 40, 12, 251, 229, 227, 197, 46, 11, 26, 10, 
  206, 248, 0, 235, 201, 36, 31, 244, 202, 212, 13, 206, 
  13, 25, 254, 1, 218, 49, 11, 255, 210, 22, 217, 253, 
  2, 210, 221, 226, 25, 238, 34, 217, 21, 10, 35, 212, 
  31, 15, 216, 250, 6, 203, 214, 224, 9, 10, 206, 225, 
  13, 43, 244, 234, 236, 211, 216, 23, 25, 204, 55, 15, 
  241, 201, 44, 15, 9, 186, 215, 41, 189, 1, 39, 218, 
  251, 254, 215, 6, 29, 168, 21, 57, 250, 16, 1, 225, 
  246, 44, 217, 17, 8, 211, 202, 243, 60, 229, 243, 23, 
  56, 225, 1, 245, 55, 234, 216, 55, 254, 57, 255, 215, 
  240, 169, 13, 3, 34, 63, 7, 231, 225, 211, 205, 243, 
  25, 48, 42, 23, 20, 51, 201, 16, 1, 7, 8, 212, 
  195, 48, 218, 213, 12, 231, 250, 3, 225, 9, 215, 16, 
  213, 2, 27, 44, 15, 7, 229, 199, 241, 9, 249, 206, 
  244, 211, 30, 224, 44, 200, 15, 231, 204, 4, 220, 255, 
  237, 47, 17, 208, 237, 239, 225, 241, 198, 228, 219, 228, 
  28, 218, 31, 210, 221, 249, 225, 248, 3, 37, 200, 253, 
  42, 41, 236, 229, 217, 18, 37, 2, 236, 207, 32, 198, 
  250, 240, 15, 14, 43, 24, 216, 43, 0, 9, 254, 40, 
  0, 174, 8, 231, 7, 222, 246, 45, 242, 250, 8, 46, 
  30, 11, 54, 53, 31, 16, 186, 212, 42, 39, 28, 4, 
  245, 234, 242, 238, 33, 215, 17, 230, 8, 20, 56, 238, 
  65, 191, 239, 239, 237, 226, 239, 57, 183, 12, 63, 19, 
  50, 217, 50, 240, 237, 3, 47, 20, 240, 6, 223, 233, 
  7, 17, 253, 247, 42, 166, 56, 242, 243, 230, 221, 205, 
  255, 231, 237, 86, 43, 220, 1, 55, 53, 63, 32, 213, 
  26, 212, 232, 26, 221, 233, 243, 68, 31, 13, 9, 41, 
  21, 47, 220, 183, 10, 206, 244, 60, 221, 173, 35, 34, 
  73, 236, 232, 28, 243, 1, 14, 195, 198, 238, 229, 22, 
  31, 211, 252, 55, 29, 250, 199, 6, 204, 88, 217, 44, 
  47, 30, 246, 7, 54, 66, 15, 241, 228, 233, 240, 9, 
  221, 229, 160, 215, 51, 73, 33, 234, 244, 11, 217, 215, 
  208, 20, 212, 42, 212, 2, 212, 20, 6, 210, 231, 16, 
  251, 43, 29, 7, 252, 3, 37, 238, 191, 209, 19, 231, 
  246, 249, 244, 199, 205, 255, 37, 40, 237, 19, 30, 221, 
  215, 247, 10, 31, 31, 208, 240, 216, 12, 236, 15, 11, 
  210, 254, 8, 44, 26, 7, 242, 239, 19, 248, 40, 189, 
  252, 223, 198, 243, 225, 212, 224, 197, 251, 254, 215, 7, 
  20, 232, 248, 6, 22, 5, 52, 244, 171, 255, 30, 218, 
  36, 217, 39, 45, 70, 255, 219, 215, 45, 58, 244, 26, 
  40, 36, 6, 39, 31, 217, 8, 4, 39, 240, 48, 244, 
  217, 218, 35, 81, 28, 8, 35, 3, 15, 48, 235, 217, 
  221, 199, 234, 50, 246, 35, 220, 37, 249, 52, 217, 156, 
  230, 28, 5, 197, 227, 9, 175, 191, 5, 31, 66, 255, 
  173, 239, 16, 188, 253, 3, 226, 15, 243, 167, 221, 211, 
  0, 21, 6, 202, 5, 201, 224, 59, 14, 190, 253, 38, 
  224, 54, 204, 198, 35, 222, 33, 8, 34, 24, 27, 47, 
  56, 192, 188, 223, 227, 165, 235, 77, 227, 33, 41, 36, 
  18, 8, 43, 226, 35, 222, 206, 238, 250, 1, 204, 33, 
  7, 219, 229, 200, 215, 244, 202, 219, 0, 227, 27, 45, 
  43, 230, 20, 12, 194, 254, 220, 228, 241, 208, 229, 189, 
  246, 18, 10, 237, 29, 4, 34, 42, 212, 202, 224, 223, 
  18, 208, 2, 23, 31, 241, 46, 22, 2, 205, 244, 242, 
  48, 13, 197, 10, 242, 207, 245, 48, 207, 221, 242, 17, 
  21, 252, 203, 11, 4, 249, 2, 38, 196, 10, 218, 214, 
  16, 251, 9, 3, 211, 16, 237, 219, 10, 58, 214, 41, 
  25, 17, 32, 43, 19, 202, 218, 233, 2, 246, 62, 189, 
  212, 13, 61, 240, 15, 8, 33, 44, 249, 64, 28, 9, 
  216, 179, 48, 48, 21, 208, 236, 26, 247, 22, 54, 69, 
  27, 8, 16, 227, 37, 25, 2, 26, 52, 228, 249, 207, 
  18, 209, 16, 68, 251, 60, 18, 251, 203, 233, 38, 10, 
  217, 47, 11, 10, 243, 201, 53, 225, 202, 93, 216, 201, 
  8, 25, 52, 28, 220, 90, 236, 41, 36, 36, 190, 239, 
  11, 37, 215, 240, 86, 53, 1, 30, 12, 51, 207, 39, 
  175, 38, 46, 235, 37, 2, 222, 44, 203, 0, 194, 16, 
  244, 12, 243, 206, 46, 202, 245, 193, 254, 201, 243, 210, 
  247, 232, 201, 44, 31, 236, 238, 224, 210, 30, 234, 22, 
  242, 247, 253, 39, 238, 49, 27, 15, 39, 215, 198, 173, 
  210, 61, 38, 29, 240, 25, 231, 67, 22, 82, 247, 216, 
  4, 31, 207, 4, 62, 19, 8, 1, 40, 220, 26, 68, 
  62, 4, 212, 223, 37, 52, 58, 55, 177, 234, 226, 4, 
  50, 49, 59, 27, 250, 21, 207, 22, 48, 14, 219, 224, 
  28, 242, 28, 48, 18, 197, 6, 11, 68, 39, 35, 7, 
  5, 4, 64, 249, 10, 2, 27, 247, 12, 223, 66, 203, 
  186, 193, 55, 78, 238, 12, 219, 250, 206, 34, 215, 23, 
  211, 238, 225, 54, 239, 30, 34, 243, 14, 227, 235, 9, 
  202, 31, 44, 38, 231, 231, 248, 210, 42, 253, 236, 1, 
  233, 203, 226, 224, 236, 18, 19, 25, 223, 26, 211, 26, 
  10, 210, 210, 234, 5, 237, 217, 1, 210, 5, 35, 32, 
  243, 233, 36, 20, 6, 73, 51, 251, 39, 221, 255, 207, 
  228, 51, 230, 2, 9, 225, 54, 67, 255, 42, 237, 235, 
  224, 238, 230, 27, 209, 2, 225, 4, 209, 26, 7, 20, 
  237, 218, 224, 5, 22, 5, 227, 16, 229, 254, 208, 34, 
  25, 204, 11, 35, 215, 220, 33, 254, 31, 220, 67, 20, 
  37, 37, 8, 41, 29, 38, 46, 22, 4, 16, 21, 225, 
  19, 206, 232, 211, 39, 42, 29, 226, 37, 33, 5, 23, 
  34, 192, 216, 239, 37, 28, 213, 63, 209, 227, 56, 18, 
  237, 26, 222, 217, 216, 2, 216, 45, 232, 32, 236, 239, 
  238, 39, 40, 248, 193, 210, 19, 237, 231, 225, 32, 226, 
  24, 196, 251, 225, 29, 42, 224, 7, 7, 238, 42, 55, 
  32, 45, 1, 246, 230, 30, 12, 210, 86, 254, 255, 255, 
  4, 0, 0, 0, 128, 0, 0, 0, 206, 15, 0, 0, 
  245, 48, 0, 0, 185, 53, 0, 0, 141, 231, 255, 255, 
  250, 38, 0, 0, 228, 56, 0, 0, 29, 243, 255, 255, 
  202, 70, 0, 0, 204, 243, 255, 255, 201, 10, 0, 0, 
  39, 50, 0, 0, 129, 57, 0, 0, 133, 236, 255, 255, 
  74, 69, 0, 0, 36, 46, 0, 0, 20, 238, 255, 255, 
  100, 55, 0, 0, 14, 246, 255, 255, 237, 14, 0, 0, 
  187, 56, 0, 0, 45, 27, 0, 0, 80, 238, 255, 255, 
  221, 41, 0, 0, 227, 23, 0, 0, 16, 247, 255, 255, 
  210, 71, 0, 0, 251, 52, 0, 0, 144, 233, 255, 255, 
  108, 45, 0, 0, 59, 8, 0, 0, 18, 57, 0, 0, 
  219, 39, 0, 0, 226, 254, 255, 255, 4, 0, 0, 0, 
  96, 0, 0, 0, 31, 71, 110, 6, 140, 167, 46, 173, 
  223, 156, 3, 148, 23, 51, 155, 57, 132, 11, 191, 145, 
  115, 172, 143, 206, 143, 234, 48, 202, 238, 155, 161, 184, 
  166, 168, 141, 201, 11, 155, 70, 232, 99, 87, 141, 168, 
  41, 205, 218, 18, 8, 66, 78, 39, 212, 91, 82, 17, 
  76, 232, 159, 23, 73, 39, 167, 32, 136, 20, 53, 252, 
  27, 87, 193, 119, 182, 37, 227, 52, 157, 102, 4, 36, 
  127, 166, 35, 103, 234, 235, 106, 70, 186, 125, 244, 17, 
  119, 60, 115, 85, 78, 255, 255, 255, 4, 0, 0, 0, 
  12, 0, 0, 0, 96, 238, 255, 255, 176, 224, 255, 255, 
  9, 31, 0, 0, 52, 255, 255, 255, 56, 255, 255, 255, 
  15, 0, 0, 0, 77, 76, 73, 82, 32, 67, 111, 110, 
  118, 101, 114, 116, 101, 100, 46, 0, 1, 0, 0, 0, 
  20, 0, 0, 0, 0, 0, 14, 0, 24, 0, 20, 0, 
  16, 0, 12, 0, 8, 0, 4, 0, 14, 0, 0, 0, 
  20, 0, 0, 0, 28, 0, 0, 0, 96, 1, 0, 0, 
  100, 1, 0, 0, 104, 1, 0, 0, 4, 0, 0, 0, 
  109, 97, 105, 110, 0, 0, 0, 0, 5, 0, 0, 0, 
  8, 1, 0, 0, 192, 0, 0, 0, 136, 0, 0, 0, 
  80, 0, 0, 0, 20, 0, 0, 0, 0, 0, 14, 0, 
  26, 0, 20, 0, 16, 0, 12, 0, 11, 0, 4, 0, 
  14, 0, 0, 0, 28, 0, 0, 0, 0, 0, 0, 9, 
  28, 0, 0, 0, 32, 0, 0, 0, 1, 0, 0, 0, 
  0, 0, 6, 0, 8, 0, 4, 0, 6, 0, 0, 0, 
  0, 0, 128, 63, 1, 0, 0, 0, 13, 0, 0, 0, 
  1, 0, 0, 0, 12, 0, 0, 0, 98, 255, 255, 255, 
  20, 0, 0, 0, 0, 0, 0, 8, 16, 0, 0, 0, 
  20, 0, 0, 0, 4, 0, 4, 0, 4, 0, 0, 0, 
  1, 0, 0, 0, 12, 0, 0, 0, 3, 0, 0, 0, 
  11, 0, 0, 0, 2, 0, 0, 0, 1, 0, 0, 0, 
  150, 255, 255, 255, 16, 0, 0, 0, 0, 0, 0, 8, 
  16, 0, 0, 0, 20, 0, 0, 0, 134, 255, 255, 255, 
  0, 0, 0, 1, 1, 0, 0, 0, 11, 0, 0, 0, 
  3, 0, 0, 0, 10, 0, 0, 0, 4, 0, 0, 0, 
  3, 0, 0, 0, 202, 255, 255, 255, 16, 0, 0, 0, 
  0, 0, 0, 8, 16, 0, 0, 0, 20, 0, 0, 0, 
  186, 255, 255, 255, 0, 0, 0, 1, 1, 0, 0, 0, 
  10, 0, 0, 0, 3, 0, 0, 0, 9, 0, 0, 0, 
  6, 0, 0, 0, 5, 0, 0, 0, 0, 0, 14, 0, 
  22, 0, 0, 0, 16, 0, 12, 0, 11, 0, 4, 0, 
  14, 0, 0, 0, 24, 0, 0, 0, 0, 0, 0, 8, 
  24, 0, 0, 0, 28, 0, 0, 0, 0, 0, 6, 0, 
  8, 0, 7, 0, 6, 0, 0, 0, 0, 0, 0, 1, 
  1, 0, 0, 0, 9, 0, 0, 0, 3, 0, 0, 0, 
  0, 0, 0, 0, 8, 0, 0, 0, 7, 0, 0, 0, 
  1, 0, 0, 0, 13, 0, 0, 0, 1, 0, 0, 0, 
  0, 0, 0, 0, 14, 0, 0, 0, 156, 6, 0, 0, 
  12, 6, 0, 0, 136, 5, 0, 0, 20, 5, 0, 0, 
  168, 4, 0, 0, 52, 4, 0, 0, 200, 3, 0, 0, 
  84, 3, 0, 0, 240, 2, 0, 0, 84, 2, 0, 0, 
  176, 1, 0, 0, 12, 1, 0, 0, 128, 0, 0, 0, 
  4, 0, 0, 0, 178, 249, 255, 255, 0, 0, 0, 1, 
  24, 0, 0, 0, 32, 0, 0, 0, 60, 0, 0, 0, 
  14, 0, 0, 0, 0, 0, 0, 9, 80, 0, 0, 0, 
  2, 0, 0, 0, 255, 255, 255, 255, 3, 0, 0, 0, 
  156, 249, 255, 255, 8, 0, 0, 0, 16, 0, 0, 0, 
  1, 0, 0, 0, 128, 255, 255, 255, 255, 255, 255, 255, 
  1, 0, 0, 0, 0, 0, 128, 59, 25, 0, 0, 0, 
  83, 116, 97, 116, 101, 102, 117, 108, 80, 97, 114, 116, 
  105, 116, 105, 111, 110, 101, 100, 67, 97, 108, 108, 58, 
  48, 0, 0, 0, 2, 0, 0, 0, 1, 0, 0, 0, 
  3, 0, 0, 0, 42, 250, 255, 255, 0, 0, 0, 1, 
  24, 0, 0, 0, 32, 0, 0, 0, 60, 0, 0, 0, 
  13, 0, 0, 0, 0, 0, 0, 9, 96, 0, 0, 0, 
  2, 0, 0, 0, 255, 255, 255, 255, 3, 0, 0, 0, 
  20, 250, 255, 255, 8, 0, 0, 0, 16, 0, 0, 0, 
  1, 0, 0, 0, 240, 255, 255, 255, 255, 255, 255, 255, 
  1, 0, 0, 0, 221, 206, 149, 60, 42, 0, 0, 0, 
  109, 111, 100, 101, 108, 47, 100, 101, 110, 115, 101, 95, 
  51, 47, 77, 97, 116, 77, 117, 108, 59, 109, 111, 100, 
  101, 108, 47, 100, 101, 110, 115, 101, 95, 51, 47, 66, 
  105, 97, 115, 65, 100, 100, 0, 0, 2, 0, 0, 0, 
  1, 0, 0, 0, 3, 0, 0, 0, 178, 250, 255, 255, 
  0, 0, 0, 1, 24, 0, 0, 0, 32, 0, 0, 0, 
  64, 0, 0, 0, 12, 0, 0, 0, 0, 0, 0, 9, 
  120, 0, 0, 0, 2, 0, 0, 0, 255, 255, 255, 255, 
  32, 0, 0, 0, 156, 250, 255, 255, 8, 0, 0, 0, 
  20, 0, 0, 0, 1, 0, 0, 0, 128, 255, 255, 255, 
  255, 255, 255, 255, 0, 0, 0, 0, 1, 0, 0, 0, 
  198, 170, 130, 59, 61, 0, 0, 0, 109, 111, 100, 101, 
  108, 47, 100, 101, 110, 115, 101, 95, 50, 47, 77, 97, 
  116, 77, 117, 108, 59, 109, 111, 100, 101, 108, 47, 100, 
  101, 110, 115, 101, 95, 50, 47, 82, 101, 108, 117, 59, 
  109, 111, 100, 101, 108, 47, 100, 101, 110, 115, 101, 95, 
  50, 47, 66, 105, 97, 115, 65, 100, 100, 0, 0, 0, 
  2, 0, 0, 0, 1, 0, 0, 0, 32, 0, 0, 0, 
  82, 251, 255, 255, 0, 0, 0, 1, 24, 0, 0, 0, 
  32, 0, 0, 0, 64, 0, 0, 0, 11, 0, 0, 0, 
  0, 0, 0, 9, 120, 0, 0, 0, 2, 0, 0, 0, 
  255, 255, 255, 255, 64, 0, 0, 0, 60, 251, 255, 255, 
  8, 0, 0, 0, 20, 0, 0, 0, 1, 0, 0, 0, 
  128, 255, 255, 255, 255, 255, 255, 255, 0, 0, 0, 0, 
  1, 0, 0, 0, 7, 195, 237, 58, 61, 0, 0, 0, 
  109, 111, 100, 101, 108, 47, 100, 101, 110, 115, 101, 95, 
  49, 47, 77, 97, 116, 77, 117, 108, 59, 109, 111, 100, 
  101, 108, 47, 100, 101, 110, 115, 101, 95, 49, 47, 82, 
  101, 108, 117, 59, 109, 111, 100, 101, 108, 47, 100, 101, 
  110, 115, 101, 95, 49, 47, 66, 105, 97, 115, 65, 100, 
  100, 0, 0, 0, 2, 0, 0, 0, 1, 0, 0, 0, 
  64, 0, 0, 0, 242, 251, 255, 255, 0, 0, 0, 1, 
  24, 0, 0, 0, 32, 0, 0, 0, 64, 0, 0, 0, 
  10, 0, 0, 0, 0, 0, 0, 9, 112, 0, 0, 0, 
  2, 0, 0, 0, 255, 255, 255, 255, 128, 0, 0, 0, 
  220, 251, 255, 255, 8, 0, 0, 0, 20, 0, 0, 0, 
  1, 0, 0, 0, 128, 255, 255, 255, 255, 255, 255, 255, 
  0, 0, 0, 0, 1, 0, 0, 0, 11, 164, 137, 58, 
  55, 0, 0, 0, 109, 111, 100, 101, 108, 47, 100, 101, 
  110, 115, 101, 47, 77, 97, 116, 77, 117, 108, 59, 109, 
  111, 100, 101, 108, 47, 100, 101, 110, 115, 101, 47, 82, 
  101, 108, 117, 59, 109, 111, 100, 101, 108, 47, 100, 101, 
  110, 115, 101, 47, 66, 105, 97, 115, 65, 100, 100, 0, 
  2, 0, 0, 0, 1, 0, 0, 0, 128, 0, 0, 0, 
  22, 253, 255, 255, 0, 0, 0, 1, 20, 0, 0, 0, 
  48, 0, 0, 0, 9, 0, 0, 0, 0, 0, 0, 9, 
  60, 0, 0, 0, 100, 252, 255, 255, 8, 0, 0, 0, 
  16, 0, 0, 0, 1, 0, 0, 0, 0, 0, 0, 0, 
  0, 0, 0, 0, 1, 0, 0, 0, 231, 220, 129, 59, 
  18, 0, 0, 0, 109, 111, 100, 101, 108, 47, 100, 101, 
  110, 115, 101, 47, 77, 97, 116, 77, 117, 108, 0, 0, 
  2, 0, 0, 0, 128, 0, 0, 0, 2, 0, 0, 0, 
  118, 253, 255, 255, 0, 0, 0, 1, 20, 0, 0, 0, 
  52, 0, 0, 0, 8, 0, 0, 0, 0, 0, 0, 2, 
  80, 0, 0, 0, 196, 252, 255, 255, 8, 0, 0, 0, 
  20, 0, 0, 0, 1, 0, 0, 0, 0, 0, 0, 0, 
  0, 0, 0, 0, 0, 0, 0, 0, 1, 0, 0, 0, 
  71, 95, 130, 55, 34, 0, 0, 0, 109, 111, 100, 101, 
  108, 47, 100, 101, 110, 115, 101, 47, 66, 105, 97, 115, 
  65, 100, 100, 47, 82, 101, 97, 100, 86, 97, 114, 105, 
  97, 98, 108, 101, 79, 112, 0, 0, 1, 0, 0, 0, 
  128, 0, 0, 0, 230, 253, 255, 255, 0, 0, 0, 1, 
  20, 0, 0, 0, 52, 0, 0, 0, 7, 0, 0, 0, 
  0, 0, 0, 9, 68, 0, 0, 0, 52, 253, 255, 255, 
  8, 0, 0, 0, 20, 0, 0, 0, 1, 0, 0, 0, 
  0, 0, 0, 0, 0, 0, 0, 0, 0, 0, 0, 0, 
  1, 0, 0, 0, 140, 111, 24, 60, 20, 0, 0, 0, 
  109, 111, 100, 101, 108, 47, 100, 101, 110, 115, 101, 95, 
  49, 47, 77, 97, 116, 77, 117, 108, 0, 0, 0, 0, 
  2, 0, 0, 0, 64, 0, 0, 0, 128, 0, 0, 0, 
  78, 254, 255, 255, 0, 0, 0, 1, 20, 0, 0, 0, 
  48, 0, 0, 0, 6, 0, 0, 0, 0, 0, 0, 2, 
  80, 0, 0, 0, 156, 253, 255, 255, 8, 0, 0, 0, 
  16, 0, 0, 0, 1, 0, 0, 0, 0, 0, 0, 0, 
  0, 0, 0, 0, 1, 0, 0, 0, 192, 234, 35, 55, 
  36, 0, 0, 0, 109, 111, 100, 101, 108, 47, 100, 101, 
  110, 115, 101, 95, 49, 47, 66, 105, 97, 115, 65, 100, 
  100, 47, 82, 101, 97, 100, 86, 97, 114, 105, 97, 98, 
  108, 101, 79, 112, 0, 0, 0, 0, 1, 0, 0, 0, 
  64, 0, 0, 0, 190, 254, 255, 255, 0, 0, 0, 1, 
  20, 0, 0, 0, 52, 0, 0, 0, 5, 0, 0, 0, 
  0, 0, 0, 9, 68, 0, 0, 0, 12, 254, 255, 255, 
  8, 0, 0, 0, 20, 0, 0, 0, 1, 0, 0, 0, 
  0, 0, 0, 0, 0, 0, 0, 0, 0, 0, 0, 0, 
  1, 0, 0, 0, 168, 2, 145, 59, 20, 0, 0, 0, 
  109, 111, 100, 101, 108, 47, 100, 101, 110, 115, 101, 95, 
  50, 47, 77, 97, 116, 77, 117, 108, 0, 0, 0, 0, 
  2, 0, 0, 0, 32, 0, 0, 0, 64, 0, 0, 0, 
  38, 255, 255, 255, 0, 0, 0, 1, 20, 0, 0, 0, 
  48, 0, 0, 0, 4, 0, 0, 0, 0, 0, 0, 2, 
  80, 0, 0, 0, 116, 254, 255, 255, 8, 0, 0, 0, 
  16, 0, 0, 0, 1, 0, 0, 0, 0, 0, 0, 0, 
  0, 0, 0, 0, 1, 0, 0, 0, 239, 173, 6, 55, 
  36, 0, 0, 0, 109, 111, 100, 101, 108, 47, 100, 101, 
  110, 115, 101, 95, 50, 47, 66, 105, 97, 115, 65, 100, 
  100, 47, 82, 101, 97, 100, 86, 97, 114, 105, 97, 98, 
  108, 101, 79, 112, 0, 0, 0, 0, 1, 0, 0, 0, 
  32, 0, 0, 0, 150, 255, 255, 255, 0, 0, 0, 1, 
  20, 0, 0, 0, 52, 0, 0, 0, 3, 0, 0, 0, 
  0, 0, 0, 9, 68, 0, 0, 0, 228, 254, 255, 255, 
  8, 0, 0, 0, 20, 0, 0, 0, 1, 0, 0, 0, 
  0, 0, 0, 0, 0, 0, 0, 0, 0, 0, 0, 0, 
  1, 0, 0, 0, 223, 210, 108, 59, 20, 0, 0, 0, 
  109, 111, 100, 101, 108, 47, 100, 101, 110, 115, 101, 95, 
  51, 47, 77, 97, 116, 77, 117, 108, 0, 0, 0, 0, 
  2, 0, 0, 0, 3, 0, 0, 0, 32, 0, 0, 0, 
  0, 0, 22, 0, 28, 0, 24, 0, 23, 0, 16, 0, 
  12, 0, 8, 0, 0, 0, 0, 0, 0, 0, 7, 0, 
  22, 0, 0, 0, 0, 0, 0, 1, 20, 0, 0, 0, 
  52, 0, 0, 0, 2, 0, 0, 0, 0, 0, 0, 2, 
  84, 0, 0, 0, 100, 255, 255, 255, 8, 0, 0, 0, 
  20, 0, 0, 0, 1, 0, 0, 0, 0, 0, 0, 0, 
  0, 0, 0, 0, 0, 0, 0, 0, 1, 0, 0, 0, 
  33, 194, 113, 55, 36, 0, 0, 0, 109, 111, 100, 101, 
  108, 47, 100, 101, 110, 115, 101, 95, 51, 47, 66, 105, 
  97, 115, 65, 100, 100, 47, 82, 101, 97, 100, 86, 97, 
  114, 105, 97, 98, 108, 101, 79, 112, 0, 0, 0, 0, 
  1, 0, 0, 0, 3, 0, 0, 0, 0, 0, 22, 0, 
  32, 0, 28, 0, 27, 0, 20, 0, 16, 0, 12, 0, 
  0, 0, 0, 0, 8, 0, 7, 0, 22, 0, 0, 0, 
  0, 0, 0, 1, 24, 0, 0, 0, 44, 0, 0, 0, 
  76, 0, 0, 0, 1, 0, 0, 0, 0, 0, 0, 9, 
  96, 0, 0, 0, 2, 0, 0, 0, 255, 255, 255, 255, 
  2, 0, 0, 0, 12, 0, 12, 0, 0, 0, 0, 0, 
  8, 0, 4, 0, 12, 0, 0, 0, 8, 0, 0, 0, 
  20, 0, 0, 0, 1, 0, 0, 0, 128, 255, 255, 255, 
  255, 255, 255, 255, 0, 0, 0, 0, 1, 0, 0, 0, 
  129, 128, 128, 59, 26, 0, 0, 0, 115, 101, 114, 118, 
  105, 110, 103, 95, 100, 101, 102, 97, 117, 108, 116, 95, 
  102, 101, 97, 116, 117, 114, 101, 115, 58, 48, 0, 0, 
  2, 0, 0, 0, 1, 0, 0, 0, 2, 0, 0, 0, 
  2, 0, 0, 0, 36, 0, 0, 0, 4, 0, 0, 0, 
  240, 255, 255, 255, 25, 0, 0, 0, 2, 0, 0, 0, 
  0, 0, 0, 25, 12, 0, 16, 0, 15, 0, 0, 0, 
  8, 0, 4, 0, 12, 0, 0, 0, 9, 0, 0, 0, 
  4, 0, 0, 0, 0, 0, 0, 9
};

static const unsigned int comfort_model_v2_int8_len = 14408u;

#endif
