// comfort_model.h
#pragma once

static const unsigned char exported_model_int8_tflite[] = {
  0x1c, 0x00, 0x00, 0x00, 0x54, 0x46, 0x4c, 0x33, 0x14, 0x00, 0x20, 0x00,
  0x1c, 0x00, 0x18, 0x00, 0x14, 0x00, 0x10, 0x00, 0x0c, 0x00, 0x00, 0x00,
  0x08, 0x00, 0x04, 0x00, 0x14, 0x00, 0x00, 0x00, 0x1c, 0x00, 0x00, 0x00,
  0x80, 0x00, 0x00, 0x00, 0xd8, 0x00, 0x00, 0x00, 0xfc, 0x0f, 0x00, 0x00,
  0x0c, 0x10, 0x00, 0x00, 0xa8, 0x15, 0x00, 0x00, 0x03, 0x00, 0x00, 0x00,
  0x01, 0x00, 0x00, 0x00, 0x04, 0x00, 0x00, 0x00, 0xb6, 0xef, 0xff, 0xff,
  0x0c, 0x00, 0x00, 0x00, 0x1c, 0x00, 0x00, 0x00, 0x38, 0x00, 0x00, 0x00,
  0x0f, 0x00, 0x00, 0x00, 0x73, 0x65, 0x72, 0x76, 0x69, 0x6e, 0x67, 0x5f,
  0x64, 0x65, 0x66, 0x61, 0x75, 0x6c, 0x74, 0x00, 0x01, 0x00, 0x00, 0x00,
  0x04, 0x00, 0x00, 0x00, 0x9c, 0xff, 0xff, 0xff, 0x0a, 0x00, 0x00, 0x00,
  0x04, 0x00, 0x00, 0x00, 0x07, 0x00, 0x00, 0x00, 0x64, 0x65, 0x6e, 0x73,
  0x65, 0x5f, 0x32, 0x00, 0x01, 0x00, 0x00, 0x00, 0x04, 0x00, 0x00, 0x00,
  0xc2, 0xf0, 0xff, 0xff, 0x04, 0x00, 0x00, 0x00, 0x07, 0x00, 0x00, 0x00,
  0x69, 0x6e, 0x70, 0x75, 0x74, 0x5f, 0x31, 0x00, 0x02, 0x00, 0x00, 0x00,
  0x34, 0x00, 0x00, 0x00, 0x04, 0x00, 0x00, 0x00, 0xdc, 0xff, 0xff, 0xff,
  0x0d, 0x00, 0x00, 0x00, 0x04, 0x00, 0x00, 0x00, 0x13, 0x00, 0x00, 0x00,
  0x43, 0x4f, 0x4e, 0x56, 0x45, 0x52, 0x53, 0x49, 0x4f, 0x4e, 0x5f, 0x4d,
  0x45, 0x54, 0x41, 0x44, 0x41, 0x54, 0x41, 0x00, 0x08, 0x00, 0x0c, 0x00,
  0x08, 0x00, 0x04, 0x00, 0x08, 0x00, 0x00, 0x00, 0x0c, 0x00, 0x00, 0x00,
  0x04, 0x00, 0x00, 0x00, 0x13, 0x00, 0x00, 0x00, 0x6d, 0x69, 0x6e, 0x5f,
  0x72, 0x75, 0x6e, 0x74, 0x69, 0x6d, 0x65, 0x5f, 0x76, 0x65, 0x72, 0x73,
  0x69, 0x6f, 0x6e, 0x00, 0x0e, 0x00, 0x00, 0x00, 0x20, 0x0f, 0x00, 0x00,
  0x18, 0x0f, 0x00, 0x00, 0xc8, 0x0e, 0x00, 0x00, 0xac, 0x0e, 0x00, 0x00,
  0x1c, 0x0e, 0x00, 0x00, 0x0c, 0x09, 0x00, 0x00, 0xfc, 0x00, 0x00, 0x00,
  0xac, 0x00, 0x00, 0x00, 0xa4, 0x00, 0x00, 0x00, 0x9c, 0x00, 0x00, 0x00,
  0x94, 0x00, 0x00, 0x00, 0x8c, 0x00, 0x00, 0x00, 0x6c, 0x00, 0x00, 0x00,
  0x04, 0x00, 0x00, 0x00, 0x6e, 0xf1, 0xff, 0xff, 0x04, 0x00, 0x00, 0x00,
  0x58, 0x00, 0x00, 0x00, 0x0c, 0x00, 0x00, 0x00, 0x08, 0x00, 0x0e, 0x00,
  0x08, 0x00, 0x04, 0x00, 0x08, 0x00, 0x00, 0x00, 0x10, 0x00, 0x00, 0x00,
  0x28, 0x00, 0x00, 0x00, 0x00, 0x00, 0x06, 0x00, 0x08, 0x00, 0x04, 0x00,
  0x06, 0x00, 0x00, 0x00, 0x04, 0x00, 0x00, 0x00, 0x01, 0x00, 0x00, 0x00,
  0xea, 0x03, 0x00, 0x00, 0x00, 0x00, 0x0a, 0x00, 0x10, 0x00, 0x0c, 0x00,
  0x08, 0x00, 0x04, 0x00, 0x0a, 0x00, 0x00, 0x00, 0x02, 0x00, 0x00, 0x00,
  0x02, 0x00, 0x00, 0x00, 0x04, 0x00, 0x00, 0x00, 0x06, 0x00, 0x00, 0x00,
  0x32, 0x2e, 0x31, 0x35, 0x2e, 0x30, 0x00, 0x00, 0xd2, 0xf1, 0xff, 0xff,
  0x04, 0x00, 0x00, 0x00, 0x10, 0x00, 0x00, 0x00, 0x31, 0x2e, 0x31, 0x34,
  0x2e, 0x30, 0x00, 0x00, 0x00, 0x00, 0x00, 0x00, 0x00, 0x00, 0x00, 0x00,
  0x14, 0xec, 0xff, 0xff, 0x18, 0xec, 0xff, 0xff, 0x1c, 0xec, 0xff, 0xff,
  0x20, 0xec, 0xff, 0xff, 0xfe, 0xf1, 0xff, 0xff, 0x04, 0x00, 0x00, 0x00,
  0x40, 0x00, 0x00, 0x00, 0x88, 0x65, 0x98, 0x3e, 0x46, 0xb7, 0x3a, 0x3e,
  0xa1, 0x04, 0x9b, 0xbe, 0x6f, 0x94, 0xc5, 0x3e, 0xd4, 0xf0, 0xc0, 0xbe,
  0x2e, 0x9e, 0x73, 0x3e, 0x12, 0x7f, 0xff, 0xbe, 0x49, 0xca, 0xe9, 0xbe,
  0xbf, 0xee, 0x50, 0x3e, 0x93, 0x74, 0xce, 0x3e, 0xd0, 0xeb, 0xbf, 0x3e,
  0x23, 0xc8, 0x6c, 0xbe, 0xcc, 0x27, 0xfb, 0xbe, 0xda, 0x7f, 0x1b, 0x3d,
  0xdf, 0x33, 0x2a, 0x3d, 0x72, 0xd6, 0x08, 0x3f, 0x4a, 0xf2, 0xff, 0xff,
  0x04, 0x00, 0x00, 0x00, 0x00, 0x08, 0x00, 0x00, 0x37, 0x73, 0x59, 0x3e,
  0xf2, 0x22, 0x60, 0x3e, 0xb0, 0xce, 0x88, 0xbe, 0xe2, 0xdb, 0x28, 0xbe,
  0xdf, 0x9f, 0xc6, 0x3e, 0xa3, 0xce, 0xb1, 0x3d, 0xb5, 0x55, 0x9a, 0x3e,
  0xbd, 0x4d, 0x8e, 0x3e, 0xc3, 0x1f, 0x84, 0x3e, 0x5c, 0xc0, 0xfb, 0xbd,
  0x38, 0x8d, 0x14, 0x3e, 0x08, 0xe6, 0x06, 0x3e, 0x52, 0x7a, 0x25, 0x3e,
  0xc6, 0x4f, 0xdd, 0xbe, 0xa8, 0x53, 0x24, 0x3e, 0x04, 0xa5, 0x79, 0xbe,
  0x07, 0x9a, 0xdc, 0xbe, 0xf6, 0xff, 0x31, 0xbe, 0xf5, 0x6b, 0xc5, 0xbe,
  0xcb, 0x78, 0x5f, 0x3e, 0xb7, 0xd2, 0x17, 0xbe, 0x96, 0x42, 0x22, 0x3e,
  0x04, 0xea, 0x5e, 0x3e, 0xcf, 0xdc, 0xa5, 0x3e, 0x6b, 0xa2, 0x0a, 0xbe,
  0x29, 0xda, 0xaa, 0x3e, 0x48, 0x0e, 0x77, 0x3e, 0x2e, 0x9e, 0x23, 0x3c,
  0x00, 0x0e, 0xcc, 0xbe, 0xbb, 0xf4, 0x96, 0xbe, 0x35, 0x0d, 0xbf, 0x3e,
  0x04, 0x4a, 0x51, 0xbe, 0x8b, 0x6c, 0xbe, 0xbe, 0x12, 0x7a, 0x40, 0xbd,
  0x8a, 0xe4, 0x8e, 0x3e, 0x27, 0x5e, 0x6d, 0xbd, 0xaf, 0x91, 0xa9, 0x3e,
  0x94, 0xbf, 0x7d, 0xbe, 0x34, 0xdc, 0x85, 0x3d, 0x42, 0x5b, 0x03, 0x3e,
  0xda, 0xd1, 0x4c, 0xbd, 0xac, 0x6f, 0xa4, 0x3c, 0x19, 0xb7, 0x46, 0xbe,
  0xa4, 0xc0, 0xc3, 0xbe, 0xca, 0xef, 0x6e, 0xbe, 0xc9, 0x85, 0x0b, 0xbd,
  0x0c, 0xcb, 0x93, 0x3e, 0xee, 0x83, 0x00, 0x3e, 0x2c, 0xb0, 0xa0, 0xbd,
  0x4a, 0xff, 0x10, 0x3e, 0x81, 0x63, 0xd6, 0xbc, 0x6a, 0xc2, 0x40, 0xbe,
  0xb7, 0x6a, 0xcb, 0x3d, 0x26, 0xce, 0x04, 0x3e, 0x3c, 0x58, 0x93, 0x3e,
  0x1d, 0x7d, 0x40, 0x3d, 0x87, 0xf8, 0x79, 0xbd, 0x19, 0x69, 0x06, 0x3e,
  0x25, 0x55, 0x71, 0xbe, 0xf8, 0x9c, 0xd0, 0xbd, 0xa7, 0x76, 0x56, 0xbe,
  0x91, 0x01, 0xba, 0xbe, 0x6c, 0x58, 0x91, 0x3e, 0x76, 0xa3, 0x79, 0x3e,
  0xb3, 0xca, 0x80, 0x3e, 0xf6, 0x9d, 0x2d, 0x3e, 0xce, 0x08, 0x8e, 0x3e,
  0x02, 0xf0, 0x7b, 0x3d, 0x68, 0xbd, 0x5c, 0x3d, 0xe4, 0x2b, 0x7c, 0x3e,
  0x49, 0x2d, 0x63, 0xbe, 0x56, 0x69, 0x42, 0x3b, 0x80, 0x0a, 0x8c, 0x3d,
  0x85, 0xda, 0x43, 0xbd, 0xac, 0x31, 0x35, 0xbd, 0xbc, 0x5a, 0x4f, 0x3e,
  0x50, 0xbd, 0xca, 0x3e, 0xfc, 0xba, 0x9f, 0xbb, 0x51, 0x34, 0x3f, 0xbe,
  0xb8, 0x50, 0xa9, 0x3d, 0x39, 0xf5, 0x84, 0x3e, 0x82, 0x8f, 0xaa, 0x3e,
  0xfd, 0x33, 0x86, 0x3e, 0x5f, 0xc8, 0x5f, 0xbe, 0x74, 0xbc, 0x3c, 0xbe,
  0xf6, 0xc6, 0x8e, 0x3e, 0x2d, 0x01, 0x25, 0xbe, 0xc6, 0xa7, 0x95, 0xbe,
  0x92, 0xe3, 0x9e, 0xbe, 0x66, 0xe4, 0x15, 0xbd, 0x35, 0xc2, 0x7d, 0x3d,
  0xde, 0x05, 0x74, 0xbd, 0x66, 0xc4, 0xe0, 0x3d, 0xa4, 0x5f, 0xea, 0x3e,
  0x6b, 0x96, 0x9e, 0xbe, 0x1b, 0xed, 0xac, 0x3e, 0x75, 0x7f, 0x76, 0x3e,
  0xb4, 0x49, 0x49, 0xbe, 0xfc, 0xb5, 0x77, 0x3e, 0xd0, 0x16, 0x8e, 0x3e,
  0xb2, 0x70, 0x7b, 0x3e, 0xab, 0xdb, 0x49, 0xbe, 0x73, 0xba, 0xcc, 0xbd,
  0x17, 0x53, 0xa5, 0xbe, 0x36, 0x65, 0x4b, 0xbe, 0x6b, 0x56, 0xab, 0x3d,
  0x96, 0x8b, 0x31, 0x3e, 0xad, 0x9d, 0xb4, 0xbe, 0xc5, 0x2b, 0xcc, 0x3d,
  0xcf, 0xf4, 0x81, 0xbe, 0x8d, 0xc3, 0xa3, 0xbe, 0x34, 0xc0, 0x93, 0xbe,
  0xa1, 0xd7, 0x5c, 0x3d, 0x9e, 0xc5, 0x69, 0xbd, 0x17, 0x97, 0xc1, 0xbe,
  0x42, 0x2c, 0x39, 0xbd, 0xce, 0xe7, 0xc2, 0xbd, 0x7e, 0x7b, 0x67, 0xbe,
  0x62, 0xa7, 0x1c, 0x3e, 0x4d, 0xb9, 0x9d, 0xbe, 0xe4, 0x2e, 0xa8, 0xbd,
  0x9d, 0x9b, 0x17, 0x3e, 0x02, 0x8b, 0x17, 0xbe, 0x00, 0x83, 0x52, 0xbe,
  0xa8, 0xef, 0x3c, 0x3e, 0xb1, 0x79, 0x22, 0x3e, 0x05, 0x13, 0xca, 0x3e,
  0xc2, 0xa9, 0x86, 0xbe, 0x10, 0x25, 0x1d, 0xbe, 0xf6, 0xcf, 0x69, 0xbd,
  0xdf, 0xca, 0x9e, 0xbe, 0xef, 0x6f, 0x56, 0x3e, 0x8b, 0x0f, 0x88, 0xbe,
  0xca, 0xec, 0x8c, 0x3d, 0x39, 0x1b, 0x2f, 0xbe, 0x5b, 0x4b, 0x82, 0xbd,
  0x16, 0x28, 0x83, 0x3e, 0xdd, 0x70, 0xa8, 0xbd, 0xa4, 0xad, 0x93, 0x3d,
  0xe7, 0x2f, 0xe7, 0x3e, 0xf9, 0x48, 0x2f, 0x3e, 0xa6, 0x59, 0x51, 0xbe,
  0x6c, 0x0d, 0x64, 0xbe, 0x00, 0x3b, 0x45, 0x3c, 0x82, 0xee, 0xeb, 0x3a,
  0x6c, 0x02, 0x75, 0x3e, 0x0b, 0x54, 0xb9, 0x3e, 0x04, 0x6b, 0x9a, 0xbd,
  0xe6, 0x82, 0xa3, 0xbd, 0x04, 0xa0, 0x9a, 0xbe, 0x35, 0xf3, 0x99, 0x3e,
  0x5e, 0xc9, 0xce, 0xbb, 0xe4, 0xba, 0x46, 0xbe, 0x87, 0x7b, 0x2d, 0xbe,
  0xe8, 0xcc, 0x27, 0x3e, 0x28, 0xa0, 0x8d, 0x3e, 0x2d, 0xa7, 0xa2, 0xbd,
  0x2c, 0xf7, 0xcc, 0xbd, 0x1f, 0x49, 0x93, 0x3a, 0x60, 0x3f, 0x29, 0x3e,
  0xdc, 0x7d, 0x6a, 0x3c, 0xb5, 0x71, 0x62, 0x3e, 0x43, 0xcf, 0xc2, 0x3d,
  0x8b, 0x1a, 0x8d, 0xbe, 0x33, 0x87, 0x3e, 0xbe, 0xd2, 0x8c, 0x43, 0x3e,
  0x23, 0x3f, 0x19, 0xbe, 0xc0, 0xaa, 0x0d, 0xbe, 0x26, 0x00, 0xab, 0xbe,
  0xb3, 0x7d, 0x60, 0x3e, 0xe7, 0xcc, 0xab, 0x3e, 0x2e, 0xd3, 0xbf, 0xbe,
  0x8b, 0x04, 0x66, 0xbe, 0x7b, 0xb6, 0x36, 0xbe, 0xde, 0xc1, 0xb6, 0x3c,
  0x3e, 0xab, 0x50, 0x3e, 0x65, 0xa7, 0xef, 0xbc, 0xd6, 0xbe, 0xbc, 0x3e,
  0x08, 0x8f, 0x0c, 0x3e, 0xb1, 0x6a, 0xc5, 0xbe, 0xaa, 0x1c, 0x8b, 0x3e,
  0x96, 0x29, 0x44, 0xbe, 0xb9, 0x15, 0x55, 0xbe, 0xa2, 0x95, 0xe3, 0x3d,
  0x52, 0xbc, 0x5a, 0x3e, 0xfe, 0xb4, 0xb8, 0x3e, 0xee, 0xa4, 0xb7, 0xbe,
  0x96, 0x13, 0x52, 0xbe, 0x65, 0x03, 0x88, 0x3e, 0x82, 0xef, 0x48, 0xbe,
  0xda, 0x75, 0xbc, 0x3d, 0x6d, 0x67, 0x24, 0xbd, 0x24, 0x66, 0xca, 0x3e,
  0x6c, 0x4f, 0x53, 0x3e, 0x33, 0xd8, 0x83, 0x3a, 0xb1, 0x76, 0xf1, 0xbd,
  0xe4, 0x94, 0x5d, 0xbe, 0x1d, 0xfd, 0x8b, 0x3e, 0x4c, 0xc5, 0x58, 0xbe,
  0x50, 0x54, 0x8b, 0xbe, 0x20, 0x9d, 0x03, 0x3e, 0xfc, 0x8b, 0x24, 0x3e,
  0x66, 0xa5, 0x2a, 0xbe, 0x44, 0x63, 0xce, 0x3e, 0x92, 0x78, 0xaa, 0x3e,
  0xf4, 0xc9, 0xc8, 0x3e, 0x38, 0xaf, 0x9d, 0x3e, 0xc8, 0x27, 0x69, 0x3d,
  0x10, 0xee, 0x98, 0x3e, 0x4a, 0x0e, 0x9a, 0xbc, 0x94, 0xa9, 0x64, 0xbe,
  0xf7, 0x7a, 0xa0, 0x3d, 0x9e, 0xe7, 0x04, 0x3e, 0xb8, 0x12, 0x89, 0x3d,
  0x44, 0x2c, 0xd7, 0x3e, 0x75, 0x89, 0xa0, 0xbe, 0x09, 0xab, 0x62, 0xbe,
  0x60, 0xec, 0x7e, 0x3e, 0xca, 0xf6, 0x13, 0x3e, 0xb4, 0x0b, 0xd9, 0x3e,
  0x89, 0xbb, 0x56, 0xbe, 0xdd, 0xc5, 0xe1, 0x3e, 0xa9, 0xd3, 0x69, 0x3e,
  0xcc, 0xf3, 0x89, 0xbe, 0xdf, 0xdb, 0xd3, 0x3d, 0x35, 0xf9, 0x9f, 0x3e,
  0x32, 0xea, 0x99, 0xbe, 0x45, 0xa5, 0xb9, 0x3e, 0x9b, 0x52, 0xc8, 0xbc,
  0x72, 0x51, 0xed, 0x3d, 0x5d, 0xab, 0x75, 0x3e, 0x3c, 0xdb, 0xe3, 0xbc,
  0x64, 0x14, 0xcf, 0x3e, 0x71, 0xbc, 0x1e, 0xbe, 0x26, 0xda, 0xb3, 0x3d,
  0xfb, 0x72, 0x01, 0x3e, 0xa3, 0x38, 0xda, 0xbd, 0x65, 0x97, 0x98, 0xbe,
  0xa5, 0x6f, 0xf8, 0xbd, 0x06, 0x78, 0xe1, 0xbd, 0x9e, 0xe0, 0x2f, 0xbe,
  0x41, 0x2b, 0x6e, 0xbe, 0xb7, 0x53, 0x60, 0xbd, 0xb5, 0x04, 0x1f, 0x3d,
  0xc5, 0xb4, 0x9e, 0x3e, 0x5d, 0x25, 0x4c, 0xbc, 0x17, 0x58, 0xc9, 0x3e,
  0x22, 0xe5, 0x6a, 0xbe, 0xd3, 0x36, 0x81, 0xbe, 0xe4, 0x23, 0xc4, 0x3e,
  0x0c, 0xfa, 0xff, 0xbd, 0x0f, 0x28, 0xb9, 0x3e, 0xde, 0xf8, 0x76, 0xbd,
  0x58, 0x24, 0xef, 0xbc, 0x2c, 0x67, 0x7a, 0xbe, 0x24, 0x27, 0xe1, 0xbd,
  0xa7, 0x49, 0x35, 0x3e, 0x0f, 0xfc, 0x3e, 0xbe, 0x5d, 0xa6, 0x3d, 0xbc,
  0x43, 0xb5, 0x76, 0xbe, 0x68, 0xf6, 0xf0, 0x3d, 0xa3, 0xbd, 0x09, 0xbe,
  0x03, 0x93, 0x69, 0x3e, 0xde, 0xf6, 0x67, 0x3e, 0x98, 0x5d, 0x8f, 0x3e,
  0xca, 0xd4, 0xa6, 0x3b, 0xf4, 0xa1, 0xa4, 0xbe, 0xc3, 0xb9, 0x4e, 0x3e,
  0xd6, 0x3b, 0x1e, 0xbd, 0x65, 0xf7, 0x75, 0x3d, 0x10, 0x87, 0x56, 0x3e,
  0x65, 0xe7, 0x8a, 0xbe, 0x8e, 0xaa, 0x9a, 0x3e, 0x6b, 0xcb, 0x36, 0xbe,
  0xae, 0x02, 0xdf, 0xbd, 0x12, 0x70, 0x1d, 0x3e, 0xe4, 0x1a, 0x68, 0xbe,
  0x20, 0x79, 0x66, 0x3e, 0xf1, 0x05, 0x83, 0xbe, 0x3d, 0xf0, 0x9b, 0x3e,
  0xb3, 0xb6, 0x64, 0x3e, 0x79, 0xab, 0xbe, 0x3d, 0x6c, 0x0d, 0x72, 0xbe,
  0xd5, 0x7d, 0x03, 0xbe, 0x5f, 0xf6, 0x4c, 0xbe, 0xe8, 0xe0, 0x3d, 0xbd,
  0xbb, 0x52, 0x91, 0xbe, 0xcf, 0xae, 0x25, 0xbe, 0xf0, 0x6e, 0x92, 0x3e,
  0x73, 0xa6, 0xc1, 0xbd, 0x94, 0x08, 0x9c, 0xbe, 0x21, 0xca, 0xd6, 0xbd,
  0xc0, 0x57, 0x86, 0x3c, 0xb2, 0x32, 0xa8, 0x3e, 0x06, 0xd6, 0xa6, 0x3d,
  0x17, 0x91, 0xd5, 0xbd, 0xc8, 0x3d, 0xaa, 0xbe, 0x1a, 0x52, 0xd0, 0x3d,
  0xe6, 0xe3, 0x27, 0xbe, 0x99, 0x95, 0x4f, 0x3e, 0xbe, 0x92, 0x5d, 0xbe,
  0x24, 0x75, 0x37, 0x3e, 0xff, 0x7c, 0x9b, 0x3e, 0x9a, 0x3b, 0x5b, 0x3e,
  0xaf, 0xf1, 0x99, 0x3e, 0xe8, 0xe5, 0x28, 0x3e, 0x72, 0x61, 0x76, 0xbe,
  0x45, 0x53, 0x11, 0x3e, 0xa4, 0x72, 0x0e, 0xbe, 0x09, 0xaf, 0x9a, 0xbe,
  0xe6, 0x88, 0x98, 0xbe, 0x65, 0xc9, 0x85, 0x3e, 0x2f, 0xbb, 0x13, 0xbd,
  0xb1, 0x28, 0x10, 0xbe, 0x29, 0xb3, 0x9d, 0xbe, 0xa9, 0xfe, 0x8a, 0xbe,
  0x2b, 0x07, 0x0b, 0x3e, 0xa0, 0x57, 0xc1, 0xbd, 0x36, 0x60, 0x18, 0xbe,
  0xf2, 0x46, 0x51, 0xbe, 0xdc, 0x9c, 0x85, 0x3e, 0x38, 0xc9, 0x0f, 0x3e,
  0xc9, 0x3c, 0x64, 0xbe, 0x2b, 0xcf, 0xb9, 0xbe, 0x08, 0xf6, 0xbd, 0xbe,
  0x8b, 0x32, 0xc5, 0x3c, 0x4c, 0x1b, 0xa5, 0xbe, 0xcf, 0x20, 0x00, 0xbe,
  0x75, 0xc1, 0x85, 0x3d, 0x8e, 0x82, 0x59, 0xbe, 0x9a, 0xe4, 0x81, 0x3e,
  0x74, 0x27, 0x91, 0x3e, 0x88, 0xe6, 0x40, 0xbe, 0x00, 0x47, 0x10, 0xbc,
  0x98, 0x71, 0x8c, 0xbe, 0xe0, 0xde, 0xf0, 0xbc, 0x1c, 0x41, 0xb2, 0xbd,
  0x9e, 0x94, 0x14, 0xbe, 0x8c, 0x64, 0x54, 0x3e, 0x94, 0x1e, 0xdc, 0xbd,
  0xfa, 0x79, 0x4a, 0xbe, 0xb2, 0xc7, 0x39, 0xbd, 0xdc, 0x05, 0xa1, 0x3e,
  0xec, 0x76, 0x1b, 0xbd, 0x9d, 0xa6, 0xfc, 0x3c, 0x9b, 0xaa, 0xf5, 0x3c,
  0xf0, 0xef, 0x01, 0xbe, 0x07, 0x8b, 0x4d, 0x3e, 0x5f, 0x5a, 0x17, 0xbe,
  0x6c, 0x47, 0x47, 0xbe, 0xb5, 0xb6, 0xf0, 0xbd, 0xf9, 0x8f, 0x82, 0xbd,
  0x8a, 0x4c, 0x5e, 0x3e, 0x1e, 0x64, 0xf9, 0xbd, 0x21, 0x82, 0x6b, 0x3e,
  0xa9, 0x19, 0xa3, 0xbe, 0xd8, 0x9d, 0x82, 0xbe, 0xbe, 0x91, 0xb8, 0xbe,
  0x23, 0xf1, 0x03, 0xbe, 0x1e, 0x1f, 0x99, 0xbe, 0x01, 0x99, 0x07, 0x3e,
  0x52, 0x3d, 0x9a, 0x3e, 0x88, 0x0a, 0xa1, 0xbe, 0xae, 0x57, 0x8a, 0x3e,
  0xf9, 0x0a, 0x63, 0xbc, 0x19, 0xa7, 0x73, 0x3e, 0xee, 0x75, 0x2c, 0xbe,
  0x7a, 0x03, 0x3b, 0x3e, 0x81, 0xea, 0x12, 0xbd, 0xd8, 0x70, 0xf7, 0x3a,
  0x9f, 0x5b, 0x3e, 0xbd, 0x27, 0x99, 0x16, 0x3d, 0x29, 0xf7, 0xb2, 0x3e,
  0xb3, 0xd6, 0xa9, 0x3e, 0x66, 0xc3, 0x53, 0x3e, 0xbb, 0x5f, 0x2c, 0x3e,
  0x2a, 0x62, 0x80, 0xbe, 0x6e, 0x33, 0x5d, 0x3d, 0x7d, 0xe2, 0x9e, 0x3b,
  0x62, 0x2c, 0xcf, 0x3e, 0x18, 0x7c, 0x22, 0xbd, 0x04, 0x8e, 0x51, 0x3d,
  0xa1, 0x55, 0x1a, 0x3e, 0x94, 0x34, 0x1e, 0x3d, 0xc2, 0x72, 0xcd, 0x3e,
  0xbe, 0x44, 0x7d, 0xbd, 0xcd, 0x16, 0x23, 0x3e, 0xcb, 0x92, 0x53, 0x3e,
  0x63, 0xce, 0x2c, 0xbe, 0xb2, 0x34, 0x76, 0xbe, 0x8d, 0x4e, 0xa8, 0xbe,
  0x22, 0x71, 0x75, 0xbe, 0x42, 0x5b, 0x14, 0x3e, 0x3e, 0xbe, 0x19, 0xbd,
  0x36, 0xef, 0x4c, 0xbe, 0x39, 0x6d, 0x25, 0xbd, 0x7a, 0x91, 0x21, 0xbe,
  0x49, 0xe2, 0x2e, 0xbe, 0x7f, 0xba, 0x81, 0x3e, 0x60, 0xd3, 0x6a, 0xbc,
  0xdf, 0x34, 0x09, 0x3e, 0x3a, 0x81, 0xc1, 0x3e, 0xc9, 0x0d, 0x89, 0xbe,
  0xd7, 0xb2, 0x92, 0xbd, 0x60, 0x56, 0x88, 0xbe, 0x1d, 0x64, 0xe5, 0x3d,
  0x15, 0xf9, 0x5c, 0x3d, 0x65, 0x40, 0x99, 0x3e, 0xf5, 0x8c, 0x81, 0x3e,
  0x13, 0x1f, 0x4f, 0x3e, 0x8a, 0x77, 0xd7, 0x3c, 0x69, 0xea, 0xad, 0xbd,
  0x53, 0x47, 0x33, 0xbe, 0xb4, 0x70, 0xb9, 0x3e, 0x32, 0x3a, 0x62, 0xbe,
  0x5e, 0x6b, 0x86, 0x3e, 0x3c, 0x4b, 0xfe, 0x3c, 0x8b, 0xa9, 0x95, 0xbe,
  0x2f, 0x0c, 0x62, 0xbe, 0xc5, 0xb4, 0x22, 0x3d, 0xaf, 0xc5, 0x13, 0x3e,
  0xb0, 0x44, 0x7d, 0x3b, 0x74, 0x1b, 0x40, 0xbe, 0xa3, 0x69, 0x60, 0xbc,
  0x9f, 0x74, 0x8b, 0xbe, 0x67, 0xbe, 0x03, 0x3e, 0x70, 0x91, 0xb3, 0xbe,
  0xcb, 0x51, 0x7b, 0xbe, 0x18, 0x8f, 0x5f, 0x3e, 0xb0, 0xfc, 0x08, 0xbd,
  0x8c, 0x02, 0x81, 0xbe, 0xd0, 0x81, 0xb4, 0xbe, 0xfd, 0x3d, 0x78, 0xbe,
  0x5d, 0xbe, 0x05, 0xbd, 0x53, 0xbf, 0x0e, 0x3e, 0x65, 0x83, 0xd4, 0x3c,
  0x20, 0x33, 0x65, 0xbe, 0xe5, 0xf9, 0x79, 0x3e, 0xa7, 0x9d, 0x00, 0xbe,
  0xb8, 0xde, 0x9f, 0x3e, 0x40, 0x90, 0xec, 0x3d, 0xd5, 0xd6, 0x3b, 0xbe,
  0xf6, 0xd0, 0x77, 0x3e, 0x7c, 0x9e, 0x9b, 0xbe, 0xd8, 0xdd, 0x68, 0xbe,
  0xc5, 0x1a, 0xb1, 0x3e, 0x4a, 0x46, 0xb2, 0xbe, 0x6d, 0x9d, 0x6e, 0xbc,
  0xfd, 0x9d, 0x34, 0xbe, 0x12, 0x98, 0xf9, 0xbd, 0x9a, 0x09, 0xd5, 0xbd,
  0x8b, 0xf8, 0x79, 0xbe, 0x24, 0x20, 0xfe, 0xbd, 0x0f, 0x4f, 0x9c, 0x3e,
  0x2a, 0xe4, 0x2b, 0x3e, 0x80, 0x97, 0x2b, 0xbe, 0xb5, 0x07, 0xa0, 0xbe,
  0xcb, 0xfd, 0xd7, 0xbd, 0xf6, 0xc1, 0xbe, 0xbd, 0x25, 0x1c, 0xd3, 0x3d,
  0xc8, 0x35, 0xfe, 0x3d, 0xde, 0x22, 0xab, 0xbe, 0xca, 0x0d, 0xd0, 0xbd,
  0x7c, 0x18, 0xd2, 0xbd, 0x47, 0x69, 0xbd, 0xbd, 0x58, 0xaa, 0xdb, 0xbc,
  0x0f, 0x42, 0x74, 0xbe, 0xbc, 0x1f, 0x89, 0x3d, 0x7b, 0xe5, 0x8c, 0x3e,
  0x54, 0x88, 0x4a, 0x3d, 0x40, 0xec, 0x97, 0x3e, 0x30, 0xbc, 0xcd, 0xbb,
  0xbf, 0x47, 0x25, 0xbe, 0xc3, 0x28, 0x8c, 0x3c, 0x49, 0x90, 0x9b, 0x3e,
  0x2f, 0x40, 0xa6, 0xbe, 0x00, 0x42, 0xa3, 0x3e, 0xfa, 0x12, 0x31, 0x3e,
  0x3f, 0x15, 0x3a, 0xbd, 0x24, 0x4f, 0xa3, 0xbe, 0x2f, 0xd6, 0x96, 0xbe,
  0x8c, 0xa0, 0x85, 0x3e, 0x53, 0xd6, 0x6e, 0x3e, 0x1a, 0x79, 0x9a, 0xbe,
  0x15, 0xc1, 0x1e, 0x3c, 0x36, 0x8c, 0x25, 0xbe, 0xf5, 0xe8, 0xc9, 0xbd,
  0xb9, 0x16, 0xf8, 0xbd, 0x74, 0xf6, 0xce, 0x3c, 0x0a, 0xff, 0xa1, 0x3e,
  0x1c, 0x43, 0x75, 0xbe, 0xf2, 0x9e, 0x46, 0x3e, 0xc4, 0xd2, 0x04, 0x3d,
  0xec, 0x89, 0x83, 0x3d, 0xbe, 0x4a, 0x4b, 0x3e, 0x44, 0xb2, 0xaa, 0xbd,
  0x08, 0xa4, 0x83, 0x3e, 0x35, 0xa0, 0x13, 0x3e, 0x44, 0x69, 0x16, 0xbe,
  0x80, 0xc0, 0x85, 0xbe, 0x08, 0xe8, 0x0e, 0xbd, 0xe2, 0x87, 0x6c, 0xbe,
  0x00, 0x7b, 0x29, 0xbe, 0x61, 0x19, 0x91, 0xbe, 0xea, 0xb3, 0xff, 0xbd,
  0x56, 0x4c, 0xb6, 0x3e, 0x93, 0x0d, 0x96, 0xbe, 0x87, 0xa6, 0xc4, 0xbe,
  0x32, 0x1e, 0x9e, 0xbe, 0x80, 0xb7, 0x2d, 0x3e, 0xee, 0x45, 0xbc, 0x3e,
  0x35, 0x96, 0x13, 0x3e, 0x56, 0xfa, 0xff, 0xff, 0x04, 0x00, 0x00, 0x00,
  0x00, 0x05, 0x00, 0x00, 0x89, 0x72, 0xb5, 0xbd, 0x24, 0x24, 0xc6, 0x3e,
  0x29, 0x21, 0xb1, 0x3e, 0x14, 0x30, 0x71, 0x3e, 0x11, 0x6d, 0x0a, 0xbe,
  0xe0, 0xe2, 0x13, 0xbe, 0x0c, 0x38, 0x8d, 0xbe, 0xf6, 0x0e, 0xc1, 0xbd,
  0x43, 0xae, 0x80, 0xbe, 0xd0, 0x69, 0x10, 0xbe, 0x0b, 0x11, 0xc5, 0xbe,
  0xe0, 0x73, 0xa4, 0xbe, 0x60, 0xbb, 0xca, 0xbe, 0x02, 0x2e, 0xbc, 0xbe,
  0x4e, 0x22, 0x90, 0x3e, 0x30, 0x3d, 0x15, 0x3d, 0x4a, 0x3c, 0x4c, 0xbe,
  0x90, 0x74, 0x56, 0xbe, 0x7f, 0x46, 0x95, 0x3e, 0xa1, 0x09, 0x2d, 0x3e,
  0xb4, 0xc6, 0x9c, 0x3c, 0x05, 0xc0, 0x66, 0x3e, 0x6b, 0x0a, 0x15, 0xbe,
  0xfd, 0x2f, 0x71, 0xbe, 0x8c, 0x28, 0xad, 0xbc, 0x84, 0x53, 0xb9, 0xbc,
  0x89, 0xdc, 0x42, 0xbe, 0xdb, 0x6b, 0xce, 0x3d, 0x0f, 0xf1, 0xbf, 0xbe,
  0x08, 0x2f, 0x00, 0xbe, 0x07, 0x72, 0x46, 0xbe, 0x1e, 0xd6, 0x87, 0xbe,
  0x10, 0x1b, 0xe0, 0x3d, 0xb9, 0x47, 0x40, 0x3e, 0xc1, 0x54, 0xea, 0xbd,
  0x40, 0x70, 0xe5, 0x3c, 0x32, 0xf2, 0x21, 0xbe, 0x5c, 0x5c, 0xc0, 0xbd,
  0x58, 0x90, 0xbb, 0x3e, 0x74, 0xfe, 0x91, 0x3e, 0x95, 0x73, 0xe6, 0x3d,
  0x29, 0xbd, 0xae, 0x3e, 0xa9, 0xa5, 0x9e, 0x3e, 0x8e, 0x72, 0xfc, 0x3c,
  0xf0, 0x8c, 0xba, 0x3c, 0x57, 0x4b, 0x4f, 0xbe, 0xdb, 0x7b, 0x92, 0x3e,
  0xa2, 0x33, 0xbd, 0x3c, 0x07, 0xe0, 0xd1, 0x3e, 0x9e, 0x46, 0x32, 0xbd,
  0x67, 0x18, 0x9f, 0x3e, 0x52, 0xc3, 0x50, 0xbe, 0x30, 0x59, 0xa6, 0xbe,
  0x16, 0x94, 0xbf, 0xbd, 0x92, 0xec, 0xba, 0xbe, 0x3f, 0xbf, 0xaa, 0x3e,
  0xfa, 0x43, 0xfe, 0x3d, 0x17, 0xdf, 0x6f, 0xbe, 0x88, 0x5e, 0x5d, 0x3e,
  0x3d, 0x14, 0xa5, 0xbd, 0x1f, 0x68, 0xaa, 0x3e, 0x4f, 0x81, 0x6c, 0xbe,
  0xf6, 0x94, 0xc8, 0xbe, 0xbf, 0x67, 0x5b, 0x3d, 0x12, 0xee, 0x3e, 0x3d,
  0x99, 0x03, 0x50, 0xbe, 0xe8, 0xfb, 0xd3, 0xbe, 0xad, 0xa2, 0x84, 0xbe,
  0x52, 0x6c, 0xe5, 0x3d, 0xce, 0x48, 0xae, 0xbe, 0x22, 0x1e, 0xb5, 0x3d,
  0x62, 0xab, 0xb5, 0xbe, 0xbd, 0x35, 0x92, 0xbe, 0x39, 0xc4, 0xb7, 0xbe,
  0xa6, 0xf0, 0x80, 0x3d, 0xfb, 0x2c, 0xae, 0xbd, 0x30, 0x71, 0x8f, 0xbd,
  0xb4, 0xb2, 0x94, 0x3e, 0xc5, 0x1a, 0xff, 0x3d, 0x9f, 0x0b, 0xe9, 0x3a,
  0x3c, 0x2e, 0x75, 0xbe, 0x09, 0xcf, 0x85, 0xbc, 0x57, 0x1a, 0xb5, 0x3e,
  0x15, 0xc4, 0xae, 0x3c, 0x99, 0xef, 0xbd, 0xbd, 0x38, 0xd7, 0xb1, 0x3e,
  0x65, 0x75, 0x98, 0x3d, 0x0f, 0x6a, 0x85, 0x3d, 0xce, 0x0c, 0xc1, 0xbe,
  0x7f, 0xed, 0x8b, 0xbe, 0xd0, 0x3d, 0x80, 0x3e, 0x94, 0xdc, 0x61, 0xbd,
  0x53, 0x4c, 0xb9, 0x3e, 0x12, 0x58, 0x94, 0x3e, 0x83, 0xaa, 0x87, 0xbe,
  0x66, 0xed, 0xf8, 0x3c, 0x9e, 0xb6, 0xae, 0x3e, 0x75, 0xd6, 0xb5, 0x3c,
  0xd1, 0xe4, 0x02, 0xbe, 0xe5, 0x89, 0x84, 0x3e, 0x67, 0x62, 0x36, 0x3e,
  0xce, 0xf1, 0x19, 0x3e, 0x38, 0x0b, 0x03, 0x3e, 0x47, 0xb5, 0x1b, 0x3e,
  0xce, 0x6c, 0x24, 0xbd, 0x19, 0xfa, 0x4a, 0x3e, 0xcc, 0xe7, 0x81, 0x3e,
  0xe1, 0x63, 0x39, 0xbd, 0x1d, 0x83, 0xe9, 0x3d, 0xdc, 0x21, 0x72, 0x3e,
  0x62, 0x98, 0xa2, 0x3d, 0x19, 0xdb, 0x50, 0x3e, 0x48, 0x41, 0x9a, 0xbe,
  0x9f, 0x34, 0x18, 0xbe, 0xc3, 0x1b, 0xa6, 0x3e, 0xa0, 0x85, 0x81, 0xbe,
  0x20, 0xf5, 0x10, 0x3e, 0x73, 0x11, 0x5b, 0xbe, 0x4f, 0xa5, 0x75, 0xbb,
  0xd4, 0x61, 0xb8, 0x3d, 0x1d, 0x3d, 0xfa, 0xbd, 0x49, 0x63, 0xf4, 0xbd,
  0xa8, 0x21, 0xbe, 0x3e, 0x35, 0x6e, 0xb2, 0x3e, 0xab, 0x3f, 0x63, 0xbe,
  0xa7, 0x52, 0x8a, 0xbe, 0xf8, 0x0c, 0x6b, 0x3e, 0x72, 0x8a, 0x31, 0xbe,
  0xe2, 0x24, 0x9a, 0xbe, 0x63, 0xdb, 0xe7, 0x3d, 0xa2, 0xd5, 0x8e, 0xbc,
  0x6b, 0x93, 0x05, 0xbe, 0x42, 0xa3, 0x83, 0xbd, 0xab, 0x6a, 0x7d, 0xbd,
  0x6f, 0x07, 0x29, 0xbe, 0x62, 0x56, 0xb2, 0xbd, 0x55, 0x49, 0x61, 0xbe,
  0x73, 0x70, 0xa7, 0x3e, 0xb2, 0x87, 0x49, 0x3e, 0xbf, 0x86, 0x4f, 0xbd,
  0x57, 0x14, 0x31, 0x3d, 0xf6, 0xde, 0x63, 0xbe, 0x00, 0xf3, 0x5a, 0x3e,
  0xf6, 0xec, 0x59, 0x3e, 0xba, 0x4b, 0x2c, 0xbc, 0xbc, 0x19, 0x17, 0xbe,
  0xe8, 0x09, 0x53, 0xbc, 0x6a, 0xbb, 0x0e, 0xbe, 0x72, 0x31, 0x80, 0xbe,
  0xeb, 0x28, 0xa8, 0xbd, 0x05, 0xe1, 0x75, 0xbe, 0x20, 0x28, 0x2a, 0xbd,
  0x8e, 0x40, 0x46, 0x3e, 0xec, 0xd7, 0xba, 0xbe, 0xb2, 0x03, 0x86, 0xbe,
  0xf1, 0x0e, 0x48, 0xbe, 0xd0, 0x45, 0xaf, 0x3d, 0x94, 0x24, 0x3b, 0xbe,
  0x7b, 0x06, 0x82, 0xbe, 0x58, 0xca, 0xd9, 0xbd, 0x29, 0x50, 0x12, 0x3e,
  0x74, 0x96, 0x6b, 0xbb, 0x6a, 0xa8, 0xac, 0x3c, 0x3d, 0xc9, 0x10, 0x3e,
  0x2d, 0x3a, 0x62, 0xbe, 0x7b, 0x6a, 0x36, 0xbe, 0x14, 0xe1, 0x51, 0x3d,
  0x43, 0x15, 0x8d, 0xbe, 0xb8, 0x95, 0x01, 0xbe, 0x4b, 0x72, 0xc2, 0x3e,
  0x85, 0x16, 0x27, 0xbe, 0x1c, 0x4b, 0xaa, 0xbc, 0xa1, 0x14, 0xa3, 0x3e,
  0x5d, 0xfd, 0x89, 0xbd, 0xff, 0x94, 0xbd, 0x3e, 0xc9, 0xff, 0xe9, 0xbd,
  0xbf, 0x4e, 0x81, 0xbd, 0xda, 0x09, 0xb9, 0x3e, 0x2e, 0x60, 0xc9, 0x3e,
  0x74, 0xfc, 0x00, 0xbe, 0x88, 0xa5, 0x8d, 0xbe, 0xaa, 0xfb, 0xa1, 0xbe,
  0x5c, 0xaa, 0xba, 0xbe, 0x0c, 0x74, 0xbd, 0xbe, 0x7e, 0x30, 0xb2, 0x3e,
  0x98, 0xe3, 0x6c, 0x3e, 0x31, 0x64, 0xcd, 0x3d, 0xf2, 0xcc, 0x02, 0xbe,
  0xd6, 0xf1, 0x8b, 0x3e, 0x5c, 0x32, 0x84, 0x3e, 0x3c, 0x56, 0x9b, 0xbe,
  0xfc, 0x36, 0x80, 0xbd, 0x7c, 0x65, 0x3f, 0xbd, 0xef, 0xb3, 0x70, 0xbd,
  0xa0, 0x1d, 0x9f, 0xbe, 0xdf, 0x5e, 0xc8, 0xbd, 0x1b, 0x54, 0x1f, 0x3e,
  0x30, 0x46, 0x5d, 0x3e, 0x51, 0xc5, 0x00, 0xbe, 0xfa, 0xff, 0xaf, 0x3e,
  0x21, 0xa5, 0xbe, 0xbe, 0x68, 0x61, 0x0d, 0xbe, 0x06, 0xef, 0xfe, 0xbd,
  0x85, 0x75, 0x44, 0x3d, 0xdc, 0x2a, 0x40, 0x3e, 0x12, 0x78, 0xf5, 0xbd,
  0xcb, 0x35, 0x1e, 0xbe, 0xf1, 0x59, 0x42, 0x3d, 0xe7, 0x0e, 0xcc, 0xbe,
  0xac, 0x10, 0x54, 0x3e, 0x2a, 0xd3, 0x52, 0xbd, 0x91, 0xbb, 0x21, 0xbe,
  0xfb, 0x0d, 0x21, 0xbc, 0x80, 0x6d, 0x91, 0xbe, 0x95, 0xf5, 0xaa, 0x3e,
  0xa7, 0xf1, 0x32, 0x3e, 0x3f, 0xaf, 0xe0, 0xbe, 0xb3, 0x1b, 0x87, 0x3e,
  0x22, 0x41, 0xc2, 0x3d, 0x8f, 0xdc, 0xaa, 0x3d, 0xd9, 0xbd, 0x4a, 0x3e,
  0x10, 0x55, 0xab, 0x3c, 0xc7, 0x0f, 0x26, 0xbe, 0x52, 0xf1, 0x88, 0x3e,
  0xc2, 0xfa, 0x87, 0xbe, 0x92, 0x29, 0xb0, 0xbe, 0xd9, 0xa1, 0x5b, 0x3e,
  0x35, 0x95, 0x4b, 0xbe, 0xba, 0x96, 0x53, 0x3d, 0xf8, 0xe8, 0xd2, 0x3d,
  0xa7, 0x2a, 0x66, 0x3e, 0x07, 0x3c, 0x35, 0x3d, 0xd2, 0x36, 0xd3, 0x3c,
  0x91, 0x2e, 0xb3, 0xbd, 0xff, 0x3e, 0x8d, 0x3c, 0x98, 0xd4, 0x85, 0xbe,
  0x30, 0x12, 0x11, 0xbe, 0xb9, 0x24, 0x66, 0x3e, 0x4d, 0xdd, 0xee, 0xbc,
  0x84, 0x4a, 0x27, 0x3e, 0x59, 0xce, 0x35, 0xbe, 0xca, 0x97, 0x01, 0x3e,
  0xc2, 0x0b, 0xc4, 0xbe, 0x7f, 0xf7, 0xcf, 0xbd, 0xb4, 0x92, 0x7a, 0xbd,
  0x64, 0x0c, 0x9f, 0xbe, 0x56, 0x61, 0x25, 0x3e, 0x5d, 0x4b, 0xd8, 0xbd,
  0x89, 0x04, 0x58, 0xbe, 0xde, 0x27, 0x25, 0x3e, 0x5d, 0xee, 0xd7, 0x3e,
  0x99, 0x22, 0xc4, 0x3e, 0x9a, 0x4a, 0xef, 0xbd, 0x75, 0x00, 0xfa, 0xbd,
  0xd5, 0x98, 0x1f, 0xbe, 0x68, 0xf7, 0x8e, 0xbb, 0x76, 0x67, 0x45, 0x3e,
  0x76, 0x5f, 0xe7, 0x3e, 0xf7, 0x31, 0x2c, 0x3e, 0x6c, 0xa3, 0x75, 0xbe,
  0x93, 0x6b, 0xa8, 0xbe, 0xff, 0x6e, 0x87, 0x3d, 0x49, 0x9e, 0x38, 0xbe,
  0xce, 0xff, 0x84, 0x3e, 0x94, 0xa9, 0xc6, 0x3c, 0x40, 0x2d, 0xb8, 0xbd,
  0x56, 0x28, 0xa8, 0xbd, 0xb0, 0x74, 0x60, 0xbc, 0x06, 0xf3, 0xcb, 0x3d,
  0x75, 0x95, 0xe1, 0x3d, 0xfd, 0xd9, 0xac, 0xbd, 0x4c, 0x74, 0xee, 0x3c,
  0x82, 0xbc, 0xa4, 0x3a, 0xd1, 0x1d, 0x26, 0xbd, 0xca, 0xf3, 0xb2, 0xbe,
  0x6a, 0x11, 0x50, 0x3e, 0x9a, 0x80, 0xe2, 0x3c, 0x00, 0x7a, 0x93, 0x3e,
  0xca, 0x78, 0x96, 0xbe, 0xa8, 0x77, 0x11, 0xbe, 0x7a, 0x8c, 0x67, 0xbb,
  0xf2, 0x09, 0xba, 0xbe, 0xd6, 0xc4, 0xf1, 0xbd, 0x7d, 0x78, 0x0b, 0xbd,
  0x3a, 0xa3, 0x0f, 0x3e, 0xd4, 0x83, 0xac, 0x3e, 0x05, 0xa9, 0x2f, 0xbe,
  0xbb, 0xdf, 0x84, 0xbe, 0x36, 0x3b, 0x74, 0x3e, 0x51, 0xcc, 0xae, 0xbd,
  0xa9, 0xc2, 0x31, 0xbe, 0x78, 0xe4, 0x94, 0xbe, 0x19, 0x54, 0xf5, 0xbd,
  0x78, 0xb6, 0x6a, 0xbe, 0xc3, 0x1a, 0x53, 0x3e, 0xa1, 0x53, 0xb1, 0x3e,
  0xae, 0x6b, 0x7b, 0xbc, 0x6a, 0xfc, 0x33, 0xbc, 0xf8, 0x16, 0x22, 0xbe,
  0xaa, 0x64, 0xe6, 0x3d, 0x7a, 0xb0, 0x73, 0xbe, 0xd9, 0x2d, 0xb6, 0x3e,
  0x28, 0xe7, 0x36, 0xbe, 0x8c, 0x8c, 0x5c, 0x3e, 0x35, 0xf6, 0x7e, 0x3e,
  0x5d, 0x90, 0xb1, 0x3e, 0xcb, 0xbe, 0x53, 0xbe, 0xb5, 0xe2, 0xde, 0x3e,
  0x15, 0x3b, 0x73, 0x3e, 0x58, 0xca, 0xc7, 0x3e, 0x13, 0xee, 0x17, 0x3e,
  0xe0, 0xb3, 0x48, 0x3e, 0x0d, 0x27, 0x53, 0x3d, 0xb4, 0x71, 0x6f, 0xbe,
  0x68, 0x33, 0x2d, 0xbe, 0xa8, 0xa4, 0x4b, 0x3e, 0xcb, 0x8e, 0xc2, 0xbc,
  0x34, 0x59, 0x66, 0xbd, 0xfd, 0x35, 0x2f, 0xbe, 0x3d, 0xe4, 0x51, 0x3e,
  0x62, 0xff, 0xff, 0xff, 0x04, 0x00, 0x00, 0x00, 0x80, 0x00, 0x00, 0x00,
  0xc5, 0x51, 0x9f, 0x3d, 0x99, 0x55, 0x33, 0xbd, 0xb2, 0x00, 0x0a, 0xbd,
  0xc8, 0x92, 0xbc, 0x3d, 0xc8, 0x1c, 0xad, 0xbd, 0x3d, 0x1d, 0x0f, 0x3d,
  0x83, 0x55, 0x31, 0xbd, 0xd6, 0x97, 0x70, 0xbd, 0x9d, 0x66, 0x99, 0x3d,
  0xba, 0xb4, 0x5c, 0xbd, 0x95, 0x99, 0x9b, 0xbd, 0x75, 0xf2, 0x0a, 0x3e,
  0x14, 0x23, 0x9a, 0x3d, 0x42, 0xac, 0xaa, 0x3d, 0xe5, 0x57, 0x24, 0xbd,
  0x00, 0x00, 0x00, 0x00, 0xb8, 0xa0, 0x2a, 0x3d, 0x76, 0x9b, 0xbc, 0x3d,
  0xc2, 0xc3, 0x92, 0x3d, 0x27, 0xfb, 0x0b, 0x3c, 0x90, 0xb9, 0xd2, 0xbc,
  0xa7, 0xf9, 0xd7, 0x3c, 0xa5, 0x91, 0xa0, 0x3d, 0x87, 0x33, 0x09, 0xbd,
  0x34, 0xae, 0x47, 0xbd, 0xe3, 0x78, 0x57, 0x3b, 0x66, 0x78, 0xb5, 0x3d,
  0x59, 0x90, 0x91, 0x3d, 0x02, 0x58, 0x3f, 0xbd, 0xa9, 0xd1, 0xdd, 0x3d,
  0x05, 0xef, 0xa3, 0xbd, 0xa1, 0x2a, 0x6b, 0x3d, 0xee, 0xff, 0xff, 0xff,
  0x04, 0x00, 0x00, 0x00, 0x04, 0x00, 0x00, 0x00, 0x47, 0xc9, 0x95, 0xbd,
  0x00, 0x00, 0x06, 0x00, 0x08, 0x00, 0x04, 0x00, 0x06, 0x00, 0x00, 0x00,
  0x04, 0x00, 0x00, 0x00, 0x40, 0x00, 0x00, 0x00, 0x8b, 0x1f, 0x96, 0xbd,
  0x4a, 0xab, 0x67, 0xbd, 0x8b, 0xb7, 0xb1, 0x3d, 0x62, 0x9d, 0x84, 0xbd,
  0xe5, 0x4e, 0xe5, 0x3d, 0xc1, 0x8a, 0x8f, 0xbd, 0x46, 0x2a, 0x86, 0x3d,
  0xfc, 0x75, 0xcc, 0x3d, 0x5d, 0x88, 0xc4, 0xbc, 0xe5, 0xfc, 0x1e, 0xbd,
  0x29, 0x4e, 0x23, 0xbd, 0x3c, 0xe0, 0x4f, 0x3d, 0x82, 0xc3, 0xb0, 0x3d,
  0x61, 0xf9, 0x9a, 0xbc, 0x25, 0x03, 0xb7, 0xbc, 0x51, 0x47, 0x62, 0xbd,
  0x78, 0xfa, 0xff, 0xff, 0x7c, 0xfa, 0xff, 0xff, 0x0f, 0x00, 0x00, 0x00,
  0x4d, 0x4c, 0x49, 0x52, 0x20, 0x43, 0x6f, 0x6e, 0x76, 0x65, 0x72, 0x74,
  0x65, 0x64, 0x2e, 0x00, 0x01, 0x00, 0x00, 0x00, 0x14, 0x00, 0x00, 0x00,
  0x00, 0x00, 0x0e, 0x00, 0x18, 0x00, 0x14, 0x00, 0x10, 0x00, 0x0c, 0x00,
  0x08, 0x00, 0x04, 0x00, 0x0e, 0x00, 0x00, 0x00, 0x14, 0x00, 0x00, 0x00,
  0x1c, 0x00, 0x00, 0x00, 0x08, 0x01, 0x00, 0x00, 0x0c, 0x01, 0x00, 0x00,
  0x10, 0x01, 0x00, 0x00, 0x04, 0x00, 0x00, 0x00, 0x6d, 0x61, 0x69, 0x6e,
  0x00, 0x00, 0x00, 0x00, 0x04, 0x00, 0x00, 0x00, 0xb0, 0x00, 0x00, 0x00,
  0x68, 0x00, 0x00, 0x00, 0x34, 0x00, 0x00, 0x00, 0x10, 0x00, 0x00, 0x00,
  0x00, 0x00, 0x0a, 0x00, 0x10, 0x00, 0x0c, 0x00, 0x08, 0x00, 0x04, 0x00,
  0x0a, 0x00, 0x00, 0x00, 0x0c, 0x00, 0x00, 0x00, 0x10, 0x00, 0x00, 0x00,
  0x01, 0x00, 0x00, 0x00, 0x01, 0x00, 0x00, 0x00, 0x0a, 0x00, 0x00, 0x00,
  0x01, 0x00, 0x00, 0x00, 0x09, 0x00, 0x00, 0x00, 0x9a, 0xff, 0xff, 0xff,
  0x10, 0x00, 0x00, 0x00, 0x00, 0x00, 0x00, 0x08, 0x0c, 0x00, 0x00, 0x00,
  0x10, 0x00, 0x00, 0x00, 0x24, 0xfb, 0xff, 0xff, 0x01, 0x00, 0x00, 0x00,
  0x09, 0x00, 0x00, 0x00, 0x03, 0x00, 0x00, 0x00, 0x08, 0x00, 0x00, 0x00,
  0x06, 0x00, 0x00, 0x00, 0x02, 0x00, 0x00, 0x00, 0xca, 0xff, 0xff, 0xff,
  0x10, 0x00, 0x00, 0x00, 0x00, 0x00, 0x00, 0x08, 0x10, 0x00, 0x00, 0x00,
  0x14, 0x00, 0x00, 0x00, 0xba, 0xff, 0xff, 0xff, 0x00, 0x00, 0x00, 0x01,
  0x01, 0x00, 0x00, 0x00, 0x08, 0x00, 0x00, 0x00, 0x03, 0x00, 0x00, 0x00,
  0x07, 0x00, 0x00, 0x00, 0x05, 0x00, 0x00, 0x00, 0x01, 0x00, 0x00, 0x00,
  0x00, 0x00, 0x0e, 0x00, 0x16, 0x00, 0x00, 0x00, 0x10, 0x00, 0x0c, 0x00,
  0x0b, 0x00, 0x04, 0x00, 0x0e, 0x00, 0x00, 0x00, 0x18, 0x00, 0x00, 0x00,
  0x00, 0x00, 0x00, 0x08, 0x18, 0x00, 0x00, 0x00, 0x1c, 0x00, 0x00, 0x00,
  0x00, 0x00, 0x06, 0x00, 0x08, 0x00, 0x07, 0x00, 0x06, 0x00, 0x00, 0x00,
  0x00, 0x00, 0x00, 0x01, 0x01, 0x00, 0x00, 0x00, 0x07, 0x00, 0x00, 0x00,
  0x03, 0x00, 0x00, 0x00, 0x00, 0x00, 0x00, 0x00, 0x04, 0x00, 0x00, 0x00,
  0x03, 0x00, 0x00, 0x00, 0x01, 0x00, 0x00, 0x00, 0x0a, 0x00, 0x00, 0x00,
  0x01, 0x00, 0x00, 0x00, 0x00, 0x00, 0x00, 0x00, 0x0b, 0x00, 0x00, 0x00,
  0x04, 0x04, 0x00, 0x00, 0x94, 0x03, 0x00, 0x00, 0x24, 0x03, 0x00, 0x00,
  0xd0, 0x02, 0x00, 0x00, 0x88, 0x02, 0x00, 0x00, 0x3c, 0x02, 0x00, 0x00,
  0xf0, 0x01, 0x00, 0x00, 0x68, 0x01, 0x00, 0x00, 0xd8, 0x00, 0x00, 0x00,
  0x60, 0x00, 0x00, 0x00, 0x04, 0x00, 0x00, 0x00, 0x3e, 0xfc, 0xff, 0xff,
  0x00, 0x00, 0x00, 0x01, 0x14, 0x00, 0x00, 0x00, 0x1c, 0x00, 0x00, 0x00,
  0x1c, 0x00, 0x00, 0x00, 0x0b, 0x00, 0x00, 0x00, 0x34, 0x00, 0x00, 0x00,
  0x02, 0x00, 0x00, 0x00, 0xff, 0xff, 0xff, 0xff, 0x01, 0x00, 0x00, 0x00,
  0x28, 0xfc, 0xff, 0xff, 0x19, 0x00, 0x00, 0x00, 0x53, 0x74, 0x61, 0x74,
  0x65, 0x66, 0x75, 0x6c, 0x50, 0x61, 0x72, 0x74, 0x69, 0x74, 0x69, 0x6f,
  0x6e, 0x65, 0x64, 0x43, 0x61, 0x6c, 0x6c, 0x3a, 0x30, 0x00, 0x00, 0x00,
  0x02, 0x00, 0x00, 0x00, 0x01, 0x00, 0x00, 0x00, 0x01, 0x00, 0x00, 0x00,
  0x96, 0xfc, 0xff, 0xff, 0x00, 0x00, 0x00, 0x01, 0x14, 0x00, 0x00, 0x00,
  0x1c, 0x00, 0x00, 0x00, 0x1c, 0x00, 0x00, 0x00, 0x0a, 0x00, 0x00, 0x00,
  0x50, 0x00, 0x00, 0x00, 0x02, 0x00, 0x00, 0x00, 0xff, 0xff, 0xff, 0xff,
  0x01, 0x00, 0x00, 0x00, 0x80, 0xfc, 0xff, 0xff, 0x34, 0x00, 0x00, 0x00,
  0x73, 0x65, 0x71, 0x75, 0x65, 0x6e, 0x74, 0x69, 0x61, 0x6c, 0x2f, 0x64,
  0x65, 0x6e, 0x73, 0x65, 0x5f, 0x32, 0x2f, 0x4d, 0x61, 0x74, 0x4d, 0x75,
  0x6c, 0x3b, 0x73, 0x65, 0x71, 0x75, 0x65, 0x6e, 0x74, 0x69, 0x61, 0x6c,
  0x2f, 0x64, 0x65, 0x6e, 0x73, 0x65, 0x5f, 0x32, 0x2f, 0x42, 0x69, 0x61,
  0x73, 0x41, 0x64, 0x64, 0x00, 0x00, 0x00, 0x00, 0x02, 0x00, 0x00, 0x00,
  0x01, 0x00, 0x00, 0x00, 0x01, 0x00, 0x00, 0x00, 0x0a, 0xfd, 0xff, 0xff,
  0x00, 0x00, 0x00, 0x01, 0x14, 0x00, 0x00, 0x00, 0x1c, 0x00, 0x00, 0x00,
  0x1c, 0x00, 0x00, 0x00, 0x09, 0x00, 0x00, 0x00, 0x68, 0x00, 0x00, 0x00,
  0x02, 0x00, 0x00, 0x00, 0xff, 0xff, 0xff, 0xff, 0x10, 0x00, 0x00, 0x00,
  0xf4, 0xfc, 0xff, 0xff, 0x4c, 0x00, 0x00, 0x00, 0x73, 0x65, 0x71, 0x75,
  0x65, 0x6e, 0x74, 0x69, 0x61, 0x6c, 0x2f, 0x64, 0x65, 0x6e, 0x73, 0x65,
  0x5f, 0x31, 0x2f, 0x4d, 0x61, 0x74, 0x4d, 0x75, 0x6c, 0x3b, 0x73, 0x65,
  0x71, 0x75, 0x65, 0x6e, 0x74, 0x69, 0x61, 0x6c, 0x2f, 0x64, 0x65, 0x6e,
  0x73, 0x65, 0x5f, 0x31, 0x2f, 0x52, 0x65, 0x6c, 0x75, 0x3b, 0x73, 0x65,
  0x71, 0x75, 0x65, 0x6e, 0x74, 0x69, 0x61, 0x6c, 0x2f, 0x64, 0x65, 0x6e,
  0x73, 0x65, 0x5f, 0x31, 0x2f, 0x42, 0x69, 0x61, 0x73, 0x41, 0x64, 0x64,
  0x00, 0x00, 0x00, 0x00, 0x02, 0x00, 0x00, 0x00, 0x01, 0x00, 0x00, 0x00,
  0x10, 0x00, 0x00, 0x00, 0x96, 0xfd, 0xff, 0xff, 0x00, 0x00, 0x00, 0x01,
  0x14, 0x00, 0x00, 0x00, 0x1c, 0x00, 0x00, 0x00, 0x1c, 0x00, 0x00, 0x00,
  0x08, 0x00, 0x00, 0x00, 0x60, 0x00, 0x00, 0x00, 0x02, 0x00, 0x00, 0x00,
  0xff, 0xff, 0xff, 0xff, 0x20, 0x00, 0x00, 0x00, 0x80, 0xfd, 0xff, 0xff,
  0x46, 0x00, 0x00, 0x00, 0x73, 0x65, 0x71, 0x75, 0x65, 0x6e, 0x74, 0x69,
  0x61, 0x6c, 0x2f, 0x64, 0x65, 0x6e, 0x73, 0x65, 0x2f, 0x4d, 0x61, 0x74,
  0x4d, 0x75, 0x6c, 0x3b, 0x73, 0x65, 0x71, 0x75, 0x65, 0x6e, 0x74, 0x69,
  0x61, 0x6c, 0x2f, 0x64, 0x65, 0x6e, 0x73, 0x65, 0x2f, 0x52, 0x65, 0x6c,
  0x75, 0x3b, 0x73, 0x65, 0x71, 0x75, 0x65, 0x6e, 0x74, 0x69, 0x61, 0x6c,
  0x2f, 0x64, 0x65, 0x6e, 0x73, 0x65, 0x2f, 0x42, 0x69, 0x61, 0x73, 0x41,
  0x64, 0x64, 0x00, 0x00, 0x02, 0x00, 0x00, 0x00, 0x01, 0x00, 0x00, 0x00,
  0x20, 0x00, 0x00, 0x00, 0x86, 0xfe, 0xff, 0xff, 0x00, 0x00, 0x00, 0x01,
  0x10, 0x00, 0x00, 0x00, 0x10, 0x00, 0x00, 0x00, 0x07, 0x00, 0x00, 0x00,
  0x28, 0x00, 0x00, 0x00, 0xf4, 0xfd, 0xff, 0xff, 0x19, 0x00, 0x00, 0x00,
  0x73, 0x65, 0x71, 0x75, 0x65, 0x6e, 0x74, 0x69, 0x61, 0x6c, 0x2f, 0x64,
  0x65, 0x6e, 0x73, 0x65, 0x5f, 0x32, 0x2f, 0x4d, 0x61, 0x74, 0x4d, 0x75,
  0x6c, 0x00, 0x00, 0x00, 0x02, 0x00, 0x00, 0x00, 0x01, 0x00, 0x00, 0x00,
  0x10, 0x00, 0x00, 0x00, 0xce, 0xfe, 0xff, 0xff, 0x00, 0x00, 0x00, 0x01,
  0x10, 0x00, 0x00, 0x00, 0x10, 0x00, 0x00, 0x00, 0x06, 0x00, 0x00, 0x00,
  0x28, 0x00, 0x00, 0x00, 0x3c, 0xfe, 0xff, 0xff, 0x19, 0x00, 0x00, 0x00,
  0x73, 0x65, 0x71, 0x75, 0x65, 0x6e, 0x74, 0x69, 0x61, 0x6c, 0x2f, 0x64,
  0x65, 0x6e, 0x73, 0x65, 0x5f, 0x31, 0x2f, 0x4d, 0x61, 0x74, 0x4d, 0x75,
  0x6c, 0x00, 0x00, 0x00, 0x02, 0x00, 0x00, 0x00, 0x10, 0x00, 0x00, 0x00,
  0x20, 0x00, 0x00, 0x00, 0x16, 0xff, 0xff, 0xff, 0x00, 0x00, 0x00, 0x01,
  0x10, 0x00, 0x00, 0x00, 0x10, 0x00, 0x00, 0x00, 0x05, 0x00, 0x00, 0x00,
  0x24, 0x00, 0x00, 0x00, 0x84, 0xfe, 0xff, 0xff, 0x17, 0x00, 0x00, 0x00,
  0x73, 0x65, 0x71, 0x75, 0x65, 0x6e, 0x74, 0x69, 0x61, 0x6c, 0x2f, 0x64,
  0x65, 0x6e, 0x73, 0x65, 0x2f, 0x4d, 0x61, 0x74, 0x4d, 0x75, 0x6c, 0x00,
  0x02, 0x00, 0x00, 0x00, 0x20, 0x00, 0x00, 0x00, 0x0a, 0x00, 0x00, 0x00,
  0x5a, 0xff, 0xff, 0xff, 0x00, 0x00, 0x00, 0x01, 0x10, 0x00, 0x00, 0x00,
  0x10, 0x00, 0x00, 0x00, 0x04, 0x00, 0x00, 0x00, 0x34, 0x00, 0x00, 0x00,
  0xc8, 0xfe, 0xff, 0xff, 0x27, 0x00, 0x00, 0x00, 0x73, 0x65, 0x71, 0x75,
  0x65, 0x6e, 0x74, 0x69, 0x61, 0x6c, 0x2f, 0x64, 0x65, 0x6e, 0x73, 0x65,
  0x2f, 0x42, 0x69, 0x61, 0x73, 0x41, 0x64, 0x64, 0x2f, 0x52, 0x65, 0x61,
  0x64, 0x56, 0x61, 0x72, 0x69, 0x61, 0x62, 0x6c, 0x65, 0x4f, 0x70, 0x00,
  0x01, 0x00, 0x00, 0x00, 0x20, 0x00, 0x00, 0x00, 0xaa, 0xff, 0xff, 0xff,
  0x00, 0x00, 0x00, 0x01, 0x10, 0x00, 0x00, 0x00, 0x10, 0x00, 0x00, 0x00,
  0x03, 0x00, 0x00, 0x00, 0x38, 0x00, 0x00, 0x00, 0x18, 0xff, 0xff, 0xff,
  0x29, 0x00, 0x00, 0x00, 0x73, 0x65, 0x71, 0x75, 0x65, 0x6e, 0x74, 0x69,
  0x61, 0x6c, 0x2f, 0x64, 0x65, 0x6e, 0x73, 0x65, 0x5f, 0x32, 0x2f, 0x42,
  0x69, 0x61, 0x73, 0x41, 0x64, 0x64, 0x2f, 0x52, 0x65, 0x61, 0x64, 0x56,
  0x61, 0x72, 0x69, 0x61, 0x62, 0x6c, 0x65, 0x4f, 0x70, 0x00, 0x00, 0x00,
  0x01, 0x00, 0x00, 0x00, 0x01, 0x00, 0x00, 0x00, 0x00, 0x00, 0x16, 0x00,
  0x18, 0x00, 0x14, 0x00, 0x00, 0x00, 0x10, 0x00, 0x0c, 0x00, 0x08, 0x00,
  0x00, 0x00, 0x00, 0x00, 0x00, 0x00, 0x07, 0x00, 0x16, 0x00, 0x00, 0x00,
  0x00, 0x00, 0x00, 0x01, 0x10, 0x00, 0x00, 0x00, 0x10, 0x00, 0x00, 0x00,
  0x02, 0x00, 0x00, 0x00, 0x38, 0x00, 0x00, 0x00, 0x84, 0xff, 0xff, 0xff,
  0x29, 0x00, 0x00, 0x00, 0x73, 0x65, 0x71, 0x75, 0x65, 0x6e, 0x74, 0x69,
  0x61, 0x6c, 0x2f, 0x64, 0x65, 0x6e, 0x73, 0x65, 0x5f, 0x31, 0x2f, 0x42,
  0x69, 0x61, 0x73, 0x41, 0x64, 0x64, 0x2f, 0x52, 0x65, 0x61, 0x64, 0x56,
  0x61, 0x72, 0x69, 0x61, 0x62, 0x6c, 0x65, 0x4f, 0x70, 0x00, 0x00, 0x00,
  0x01, 0x00, 0x00, 0x00, 0x10, 0x00, 0x00, 0x00, 0x00, 0x00, 0x16, 0x00,
  0x1c, 0x00, 0x18, 0x00, 0x00, 0x00, 0x14, 0x00, 0x10, 0x00, 0x0c, 0x00,
  0x00, 0x00, 0x00, 0x00, 0x08, 0x00, 0x07, 0x00, 0x16, 0x00, 0x00, 0x00,
  0x00, 0x00, 0x00, 0x01, 0x14, 0x00, 0x00, 0x00, 0x20, 0x00, 0x00, 0x00,
  0x20, 0x00, 0x00, 0x00, 0x01, 0x00, 0x00, 0x00, 0x38, 0x00, 0x00, 0x00,
  0x02, 0x00, 0x00, 0x00, 0xff, 0xff, 0xff, 0xff, 0x0a, 0x00, 0x00, 0x00,
  0x04, 0x00, 0x04, 0x00, 0x04, 0x00, 0x00, 0x00, 0x19, 0x00, 0x00, 0x00,
  0x73, 0x65, 0x72, 0x76, 0x69, 0x6e, 0x67, 0x5f, 0x64, 0x65, 0x66, 0x61,
  0x75, 0x6c, 0x74, 0x5f, 0x69, 0x6e, 0x70, 0x75, 0x74, 0x5f, 0x31, 0x3a,
  0x30, 0x00, 0x00, 0x00, 0x02, 0x00, 0x00, 0x00, 0x01, 0x00, 0x00, 0x00,
  0x0a, 0x00, 0x00, 0x00, 0x02, 0x00, 0x00, 0x00, 0x20, 0x00, 0x00, 0x00,
  0x04, 0x00, 0x00, 0x00, 0xf4, 0xff, 0xff, 0xff, 0x0e, 0x00, 0x00, 0x00,
  0x00, 0x00, 0x00, 0x0e, 0x0c, 0x00, 0x0c, 0x00, 0x0b, 0x00, 0x00, 0x00,
  0x00, 0x00, 0x04, 0x00, 0x0c, 0x00, 0x00, 0x00, 0x09, 0x00, 0x00, 0x00,
  0x00, 0x00, 0x00, 0x09
};
static const unsigned int exported_model_int8_tflite_len = 5644;
